#ifndef GAS_MODEL_H
#define GAS_MODEL_H


unsigned int gas_model_len = 7984;
unsigned char gas_model[] = {
 0x1c, 0x00, 0x00, 0x00, 0x54, 0x46, 0x4c, 0x33, 0x14, 0x00, 0x20, 0x00,
  0x1c, 0x00, 0x18, 0x00, 0x14, 0x00, 0x10, 0x00, 0x0c, 0x00, 0x00, 0x00,
  0x08, 0x00, 0x04, 0x00, 0x14, 0x00, 0x00, 0x00, 0x1c, 0x00, 0x00, 0x00,
  0x88, 0x00, 0x00, 0x00, 0xe0, 0x00, 0x00, 0x00, 0x2c, 0x17, 0x00, 0x00,
  0x3c, 0x17, 0x00, 0x00, 0xbc, 0x1e, 0x00, 0x00, 0x03, 0x00, 0x00, 0x00,
  0x01, 0x00, 0x00, 0x00, 0x04, 0x00, 0x00, 0x00, 0x82, 0xe8, 0xff, 0xff,
  0x0c, 0x00, 0x00, 0x00, 0x1c, 0x00, 0x00, 0x00, 0x38, 0x00, 0x00, 0x00,
  0x0f, 0x00, 0x00, 0x00, 0x73, 0x65, 0x72, 0x76, 0x69, 0x6e, 0x67, 0x5f,
  0x64, 0x65, 0x66, 0x61, 0x75, 0x6c, 0x74, 0x00, 0x01, 0x00, 0x00, 0x00,
  0x04, 0x00, 0x00, 0x00, 0x94, 0xff, 0xff, 0xff, 0x0d, 0x00, 0x00, 0x00,
  0x04, 0x00, 0x00, 0x00, 0x07, 0x00, 0x00, 0x00, 0x64, 0x65, 0x6e, 0x73,
  0x65, 0x5f, 0x36, 0x00, 0x01, 0x00, 0x00, 0x00, 0x04, 0x00, 0x00, 0x00,
  0x92, 0xe9, 0xff, 0xff, 0x04, 0x00, 0x00, 0x00, 0x0d, 0x00, 0x00, 0x00,
  0x64, 0x65, 0x6e, 0x73, 0x65, 0x5f, 0x33, 0x5f, 0x69, 0x6e, 0x70, 0x75,
  0x74, 0x00, 0x00, 0x00, 0x02, 0x00, 0x00, 0x00, 0x34, 0x00, 0x00, 0x00,
  0x04, 0x00, 0x00, 0x00, 0xdc, 0xff, 0xff, 0xff, 0x10, 0x00, 0x00, 0x00,
  0x04, 0x00, 0x00, 0x00, 0x13, 0x00, 0x00, 0x00, 0x43, 0x4f, 0x4e, 0x56,
  0x45, 0x52, 0x53, 0x49, 0x4f, 0x4e, 0x5f, 0x4d, 0x45, 0x54, 0x41, 0x44,
  0x41, 0x54, 0x41, 0x00, 0x08, 0x00, 0x0c, 0x00, 0x08, 0x00, 0x04, 0x00,
  0x08, 0x00, 0x00, 0x00, 0x0f, 0x00, 0x00, 0x00, 0x04, 0x00, 0x00, 0x00,
  0x13, 0x00, 0x00, 0x00, 0x6d, 0x69, 0x6e, 0x5f, 0x72, 0x75, 0x6e, 0x74,
  0x69, 0x6d, 0x65, 0x5f, 0x76, 0x65, 0x72, 0x73, 0x69, 0x6f, 0x6e, 0x00,
  0x11, 0x00, 0x00, 0x00, 0x48, 0x16, 0x00, 0x00, 0x40, 0x16, 0x00, 0x00,
  0xf0, 0x15, 0x00, 0x00, 0xd8, 0x0d, 0x00, 0x00, 0xc4, 0x0d, 0x00, 0x00,
  0x74, 0x0d, 0x00, 0x00, 0xe4, 0x0c, 0x00, 0x00, 0xd4, 0x0b, 0x00, 0x00,
  0xc4, 0x08, 0x00, 0x00, 0xb4, 0x00, 0x00, 0x00, 0xac, 0x00, 0x00, 0x00,
  0xa4, 0x00, 0x00, 0x00, 0x9c, 0x00, 0x00, 0x00, 0x94, 0x00, 0x00, 0x00,
  0x8c, 0x00, 0x00, 0x00, 0x6c, 0x00, 0x00, 0x00, 0x04, 0x00, 0x00, 0x00,
  0x52, 0xea, 0xff, 0xff, 0x04, 0x00, 0x00, 0x00, 0x58, 0x00, 0x00, 0x00,
  0x0c, 0x00, 0x00, 0x00, 0x08, 0x00, 0x0e, 0x00, 0x08, 0x00, 0x04, 0x00,
  0x08, 0x00, 0x00, 0x00, 0x10, 0x00, 0x00, 0x00, 0x28, 0x00, 0x00, 0x00,
  0x00, 0x00, 0x06, 0x00, 0x08, 0x00, 0x04, 0x00, 0x06, 0x00, 0x00, 0x00,
  0x04, 0x00, 0x00, 0x00, 0x01, 0x00, 0x00, 0x00, 0xea, 0x03, 0x00, 0x00,
  0x00, 0x00, 0x0a, 0x00, 0x10, 0x00, 0x0c, 0x00, 0x08, 0x00, 0x04, 0x00,
  0x0a, 0x00, 0x00, 0x00, 0x02, 0x00, 0x00, 0x00, 0x02, 0x00, 0x00, 0x00,
  0x04, 0x00, 0x00, 0x00, 0x06, 0x00, 0x00, 0x00, 0x32, 0x2e, 0x31, 0x35,
  0x2e, 0x30, 0x00, 0x00, 0xb6, 0xea, 0xff, 0xff, 0x04, 0x00, 0x00, 0x00,
  0x10, 0x00, 0x00, 0x00, 0x32, 0x2e, 0x33, 0x2e, 0x30, 0x00, 0x00, 0x00,
  0x00, 0x00, 0x00, 0x00, 0x00, 0x00, 0x00, 0x00, 0x18, 0xe3, 0xff, 0xff,
  0x1c, 0xe3, 0xff, 0xff, 0x20, 0xe3, 0xff, 0xff, 0x24, 0xe3, 0xff, 0xff,
  0x28, 0xe3, 0xff, 0xff, 0xe6, 0xea, 0xff, 0xff, 0x04, 0x00, 0x00, 0x00,
  0x00, 0x08, 0x00, 0x00, 0x13, 0xe9, 0xf0, 0x22, 0x07, 0x0f, 0xe1, 0x0a,
  0x0c, 0xe7, 0x01, 0x04, 0xf0, 0xe8, 0x19, 0xeb, 0xf5, 0xe7, 0x0a, 0xe9,
  0xf1, 0xf7, 0x05, 0xec, 0x0b, 0xe4, 0x12, 0xe3, 0xff, 0xd5, 0x04, 0x03,
  0xd9, 0x13, 0x04, 0x06, 0xfe, 0x01, 0xf4, 0x1c, 0xee, 0xf2, 0x0c, 0x07,
  0xee, 0x15, 0xf5, 0x02, 0x00, 0x10, 0xe0, 0xf8, 0x16, 0x1b, 0x13, 0xf4,
  0xe6, 0x04, 0x07, 0x13, 0x08, 0xe6, 0xfb, 0x00, 0xf6, 0x1a, 0x11, 0xf1,
  0xfa, 0xff, 0xef, 0x0b, 0xf2, 0xe4, 0xfe, 0x04, 0xe9, 0xf0, 0xf7, 0x0c,
  0x10, 0xfd, 0x17, 0xef, 0xe3, 0x1f, 0xf5, 0xee, 0xe7, 0xf7, 0xfe, 0x05,
  0xfd, 0x12, 0xf0, 0x0e, 0xfe, 0xec, 0x16, 0xe9, 0xe7, 0x15, 0x11, 0xeb,
  0xec, 0xfa, 0xfc, 0x02, 0xeb, 0x11, 0xfb, 0x18, 0xfc, 0x19, 0xf0, 0x10,
  0x00, 0x18, 0xe6, 0xfa, 0x11, 0x10, 0xf1, 0x01, 0xe4, 0xf2, 0x0b, 0x1e,
  0x05, 0xf8, 0xed, 0x19, 0x06, 0x1a, 0xf6, 0x01, 0xfb, 0xe8, 0xf4, 0x10,
  0xf5, 0xe4, 0xe9, 0xf6, 0x08, 0x06, 0xe0, 0xe2, 0x1c, 0x02, 0x12, 0xf8,
  0xf6, 0x05, 0xfd, 0xdf, 0xf7, 0xe7, 0x07, 0x18, 0xf6, 0xe0, 0xf6, 0x1a,
  0x0c, 0xe5, 0xf3, 0xff, 0x10, 0xe3, 0x00, 0x08, 0x18, 0x0f, 0x1b, 0x09,
  0x0a, 0xf2, 0xf2, 0xe1, 0xee, 0xfc, 0xf7, 0xfd, 0xf5, 0xeb, 0xfd, 0x19,
  0xf3, 0xe8, 0x0e, 0x07, 0xff, 0xf2, 0x05, 0x01, 0xe1, 0xe0, 0xfa, 0x07,
  0x22, 0xf4, 0x28, 0x1a, 0xeb, 0x0f, 0xf7, 0xe6, 0x11, 0x03, 0xcb, 0xed,
  0xec, 0xe1, 0xf9, 0xf3, 0x20, 0x00, 0xfa, 0x19, 0xf5, 0x00, 0x02, 0x0f,
  0x1f, 0x06, 0x0f, 0xeb, 0xf8, 0xe2, 0xe2, 0xc6, 0xff, 0xe9, 0x1e, 0x0b,
  0xe3, 0x05, 0x1c, 0x06, 0xfe, 0xe6, 0xea, 0x00, 0x18, 0xfe, 0x1c, 0x0a,
  0xf3, 0x17, 0x10, 0x0e, 0x0a, 0x0f, 0x02, 0xda, 0x03, 0xf2, 0xfd, 0xee,
  0x02, 0x16, 0x0a, 0x00, 0xdc, 0x01, 0x02, 0x09, 0xe5, 0x3a, 0x20, 0x2c,
  0x03, 0x04, 0xfa, 0xe5, 0x23, 0x11, 0xe2, 0x09, 0xf9, 0xf2, 0xe9, 0x0a,
  0xf9, 0xd0, 0xec, 0xeb, 0xe9, 0xfa, 0xe2, 0x00, 0x23, 0xe2, 0x18, 0xf3,
  0xe7, 0xee, 0x08, 0x0f, 0xef, 0xf1, 0xf8, 0xfe, 0x19, 0xe0, 0x02, 0xf5,
  0x19, 0x13, 0x00, 0xf5, 0xec, 0x06, 0x1e, 0xee, 0x07, 0x05, 0x24, 0x18,
  0xe9, 0x1e, 0xf1, 0x2f, 0xf4, 0x27, 0x12, 0x1d, 0xf5, 0xe2, 0x18, 0xe3,
  0x06, 0xf6, 0xec, 0x24, 0x0e, 0xe4, 0xe1, 0x0c, 0x1c, 0xfd, 0x06, 0xc7,
  0x1d, 0x1d, 0xee, 0xf1, 0xf4, 0xe9, 0x11, 0xf0, 0x21, 0xed, 0x1c, 0xdd,
  0x1c, 0x16, 0x04, 0x21, 0xcb, 0x16, 0x0f, 0xfc, 0xda, 0x16, 0xec, 0xec,
  0xef, 0xf3, 0xfa, 0xf9, 0x18, 0x09, 0x19, 0xe0, 0x12, 0x16, 0x09, 0x05,
  0x07, 0xea, 0x0e, 0xf7, 0x0a, 0xed, 0x1f, 0x19, 0xfc, 0xe7, 0x1b, 0xec,
  0x02, 0xf1, 0x1b, 0x1e, 0xe5, 0x07, 0xfe, 0xf0, 0xe7, 0x1a, 0xee, 0xf6,
  0xe7, 0xf8, 0xf7, 0x00, 0xf6, 0xfe, 0xe7, 0x11, 0xf5, 0xe4, 0x1b, 0xe5,
  0x0c, 0x1b, 0x03, 0xfb, 0xfa, 0xfb, 0xe6, 0x19, 0xfc, 0x1d, 0x03, 0xe7,
  0xea, 0xf8, 0x15, 0x02, 0xf5, 0x06, 0xfe, 0xe7, 0xe3, 0x20, 0xf8, 0xe7,
  0x17, 0xef, 0x03, 0xe4, 0x16, 0x0b, 0xf1, 0xf8, 0xed, 0xe8, 0x12, 0x11,
  0x1e, 0x0d, 0x08, 0xfa, 0xed, 0x1d, 0xe1, 0xdf, 0xfc, 0x0d, 0x0f, 0x06,
  0x01, 0xfd, 0x10, 0x0f, 0x17, 0xe4, 0x1d, 0x13, 0xfb, 0xf4, 0x0f, 0x16,
  0xe1, 0x1d, 0xe9, 0xe2, 0x1a, 0xf2, 0xe4, 0xf7, 0xe7, 0x11, 0x0c, 0xed,
  0x05, 0xec, 0xe3, 0x11, 0xff, 0xee, 0x14, 0xe5, 0x1b, 0xec, 0xee, 0xe5,
  0xf0, 0xe8, 0x0e, 0x08, 0xee, 0x1f, 0xed, 0xff, 0x1d, 0xe5, 0x01, 0xfc,
  0x00, 0x0e, 0xfe, 0x13, 0xfc, 0xf4, 0x03, 0xe5, 0xe8, 0xe3, 0x0e, 0xdc,
  0xf4, 0x52, 0x16, 0x29, 0xe6, 0x0e, 0x16, 0xfe, 0x12, 0x0f, 0xe4, 0xff,
  0xf7, 0xf1, 0xdb, 0xf8, 0x17, 0x61, 0x13, 0xed, 0xfb, 0x0f, 0x0b, 0xe5,
  0x29, 0x1c, 0x0f, 0x12, 0xe7, 0x01, 0x15, 0x06, 0xfd, 0xfb, 0xef, 0xfd,
  0x5a, 0xe2, 0xdc, 0x31, 0xe6, 0x14, 0xef, 0x03, 0xf9, 0x5b, 0xd5, 0x26,
  0xfd, 0xf1, 0x0e, 0x0c, 0x11, 0x19, 0xfd, 0x0b, 0x1b, 0xea, 0xfb, 0xf4,
  0x04, 0xf9, 0x31, 0x12, 0x23, 0xe8, 0xe7, 0xd8, 0xfd, 0x02, 0xf3, 0xea,
  0x02, 0xd8, 0x09, 0x04, 0x0b, 0x17, 0xfb, 0x18, 0xdc, 0x31, 0x07, 0xef,
  0x05, 0x0c, 0x0c, 0x1e, 0xf7, 0x16, 0x22, 0xd9, 0xf4, 0x0f, 0x18, 0x03,
  0xfa, 0x17, 0xed, 0xf5, 0x81, 0xf3, 0x02, 0x1c, 0x13, 0xde, 0x02, 0x10,
  0x40, 0xd8, 0xec, 0x1d, 0x19, 0x04, 0xe4, 0xe8, 0xff, 0x0b, 0xf2, 0xef,
  0x0c, 0x2b, 0x1c, 0x1f, 0x1b, 0x16, 0xc9, 0xeb, 0x15, 0x0d, 0xfb, 0x1b,
  0xfd, 0xec, 0x0c, 0xf5, 0x00, 0x0c, 0xf8, 0xdc, 0x13, 0xe4, 0x19, 0x0d,
  0x11, 0xe3, 0xe2, 0xfd, 0xdd, 0xf0, 0x0e, 0xf2, 0x41, 0xec, 0x12, 0x21,
  0xee, 0xd4, 0x18, 0xf3, 0xf0, 0xe5, 0x28, 0x1e, 0x11, 0x07, 0xfa, 0x1d,
  0x13, 0xf5, 0xf2, 0x0d, 0xf0, 0xf6, 0xe8, 0xec, 0xeb, 0x12, 0x1d, 0x05,
  0xf2, 0xed, 0xe0, 0xe8, 0xe5, 0x02, 0x03, 0x1b, 0x1c, 0x19, 0x10, 0xfe,
  0x02, 0x1d, 0xe6, 0x15, 0x16, 0xf9, 0xf1, 0xe3, 0x09, 0xe4, 0xf6, 0x04,
  0xe2, 0xed, 0xef, 0xe9, 0x12, 0xe4, 0x07, 0x09, 0x0c, 0xe8, 0xe8, 0x0f,
  0x11, 0xf7, 0x00, 0x14, 0x18, 0xe5, 0xec, 0x19, 0x0a, 0xe4, 0xee, 0x17,
  0xec, 0x0d, 0xf1, 0x1d, 0xe3, 0xe3, 0xed, 0xe3, 0x1d, 0xe1, 0xf9, 0xe0,
  0x05, 0xf9, 0x16, 0xef, 0xfe, 0x09, 0x14, 0xfc, 0x00, 0x04, 0xfd, 0xed,
  0x04, 0xf8, 0xf5, 0xf3, 0x0c, 0xec, 0xe2, 0xfc, 0x15, 0x0a, 0x04, 0x05,
  0x1d, 0xf9, 0xe6, 0x1e, 0x11, 0x02, 0x13, 0xf7, 0x1b, 0x0c, 0x13, 0xe1,
  0xf5, 0xf6, 0x0b, 0xf2, 0xfe, 0xe5, 0x14, 0x01, 0xe8, 0x03, 0x08, 0xf8,
  0xf3, 0xf7, 0x12, 0xe9, 0xed, 0xf8, 0x05, 0xf5, 0xfd, 0xed, 0xfd, 0xe1,
  0xee, 0xea, 0xf1, 0xf7, 0xf1, 0xf1, 0xf6, 0x09, 0xdd, 0x12, 0xe2, 0xee,
  0x00, 0x0f, 0xea, 0x11, 0xec, 0xe8, 0x0f, 0xe2, 0xf9, 0x10, 0x06, 0x03,
  0x05, 0xe4, 0xe4, 0xe1, 0xe2, 0xe6, 0xe1, 0x0c, 0xe1, 0xe4, 0x08, 0x1f,
  0x09, 0x10, 0x1f, 0xfd, 0xe3, 0x12, 0xe8, 0x0f, 0xea, 0xf1, 0xff, 0x1e,
  0x0c, 0x05, 0x18, 0xfb, 0xf5, 0xf5, 0xe8, 0xea, 0x1a, 0xe5, 0x0f, 0xe8,
  0xef, 0xe8, 0x06, 0x01, 0xee, 0x10, 0xe7, 0xed, 0xef, 0xf5, 0xf9, 0xe5,
  0x06, 0xed, 0x1a, 0x14, 0xff, 0xfd, 0x16, 0xda, 0xe1, 0x1e, 0x10, 0xfd,
  0xfa, 0xf6, 0x17, 0x06, 0xf3, 0x00, 0x05, 0x12, 0xf4, 0xf2, 0x1a, 0x19,
  0xe2, 0x08, 0xfe, 0x07, 0xe6, 0x06, 0x09, 0x02, 0xf0, 0xe9, 0xe8, 0xe5,
  0xe8, 0x08, 0x11, 0xdf, 0xf7, 0x0d, 0x06, 0xf9, 0x1c, 0x0f, 0xef, 0xe1,
  0xe9, 0xed, 0xe0, 0xed, 0xfa, 0xfc, 0xdd, 0x14, 0x13, 0x07, 0xee, 0xfe,
  0xf2, 0xf7, 0xea, 0x0e, 0x0c, 0xfa, 0xfd, 0x32, 0x00, 0x23, 0x09, 0x05,
  0xef, 0xe6, 0x0c, 0xf8, 0xf1, 0xf1, 0x07, 0x00, 0x17, 0xfc, 0xf5, 0x06,
  0xeb, 0xf8, 0x1a, 0xd4, 0xef, 0xf1, 0x14, 0x1b, 0x18, 0xf5, 0xe5, 0x14,
  0x05, 0x15, 0xe2, 0xdb, 0x1d, 0xff, 0xfa, 0x07, 0xe7, 0xf1, 0x10, 0xff,
  0x0e, 0xe7, 0xf0, 0x13, 0xe9, 0xe8, 0xff, 0x0a, 0xe7, 0x14, 0x18, 0xf6,
  0x0e, 0xf9, 0x0f, 0x00, 0x01, 0xda, 0xfa, 0x1c, 0x14, 0x19, 0xed, 0x19,
  0x10, 0xde, 0xfa, 0xed, 0x23, 0xf9, 0x4c, 0x1b, 0x19, 0xbf, 0xfa, 0xa2,
  0x14, 0x1a, 0xda, 0x18, 0xfb, 0x1e, 0x0d, 0xf1, 0x09, 0xe8, 0x1e, 0x10,
  0x1b, 0x10, 0xeb, 0xf1, 0x01, 0xea, 0x02, 0xe5, 0xfb, 0x0a, 0x01, 0xc9,
  0x1b, 0xeb, 0xe2, 0xef, 0xee, 0xfe, 0x1b, 0x15, 0xd6, 0xf9, 0xe7, 0xf3,
  0xf0, 0xfb, 0x0b, 0xe9, 0xc8, 0xf2, 0xf5, 0x02, 0x12, 0x0f, 0x0e, 0x09,
  0xe7, 0xfa, 0xf0, 0x1b, 0x0a, 0xfd, 0x14, 0xf5, 0xfe, 0x0a, 0xeb, 0xf3,
  0x17, 0x0f, 0xe9, 0x16, 0x14, 0x15, 0xe4, 0xef, 0xf4, 0x11, 0x07, 0xec,
  0xf7, 0x1d, 0x19, 0x06, 0xeb, 0x16, 0x03, 0xee, 0xe1, 0x03, 0x01, 0xed,
  0x00, 0xf9, 0x07, 0xf8, 0x10, 0x05, 0x04, 0xfb, 0xf6, 0x11, 0x14, 0x09,
  0xeb, 0xfe, 0x01, 0xec, 0xea, 0x19, 0xf9, 0x0a, 0xff, 0xfc, 0x1b, 0x19,
  0x0d, 0xf5, 0x1f, 0xe7, 0xc7, 0x01, 0xfb, 0x16, 0x14, 0x29, 0x12, 0x10,
  0xf2, 0xe7, 0x2d, 0x13, 0x00, 0x70, 0xe1, 0x3f, 0x16, 0xfd, 0xe3, 0x14,
  0x1b, 0x1e, 0xf8, 0x10, 0x06, 0x08, 0x12, 0x16, 0xe5, 0x18, 0x16, 0xfb,
  0xf7, 0x0b, 0x15, 0xe7, 0xe3, 0x13, 0xf6, 0xfa, 0x18, 0xee, 0xfa, 0xe8,
  0x08, 0x10, 0xea, 0xe7, 0x59, 0x11, 0xfb, 0x08, 0x0c, 0x16, 0xc7, 0x07,
  0xd0, 0xe4, 0xfb, 0x06, 0xef, 0x0e, 0xed, 0x12, 0xf1, 0x0f, 0xee, 0xfd,
  0xf9, 0xe3, 0xf4, 0x07, 0xde, 0xfd, 0xfa, 0x17, 0x20, 0x04, 0x10, 0x16,
  0xfb, 0xe5, 0xf1, 0xf4, 0x17, 0xf1, 0x20, 0x0e, 0xe4, 0xe8, 0x16, 0xf1,
  0xfc, 0x47, 0xf6, 0x17, 0x00, 0xef, 0xe3, 0x14, 0xd6, 0x07, 0xe5, 0xfa,
  0x06, 0x17, 0xe0, 0x1e, 0x07, 0x10, 0xec, 0x16, 0x2d, 0xee, 0xe6, 0xfc,
  0xfe, 0xf4, 0x16, 0xee, 0x28, 0xf8, 0xec, 0x00, 0x21, 0x0f, 0xf0, 0xea,
  0x11, 0xf7, 0xe2, 0x13, 0xec, 0x03, 0xe2, 0x12, 0xff, 0xf5, 0x28, 0x12,
  0xe3, 0xf8, 0x14, 0xee, 0x07, 0xfa, 0xf4, 0x16, 0xfc, 0x00, 0xed, 0xe8,
  0x1f, 0x0d, 0xf0, 0xec, 0x10, 0xe5, 0x0f, 0x07, 0xfa, 0xfd, 0x16, 0x17,
  0xf7, 0x07, 0xef, 0xed, 0xf6, 0xf2, 0xe9, 0x09, 0xfb, 0xfe, 0x12, 0x07,
  0xe6, 0xf0, 0xe2, 0xfb, 0xf9, 0xf0, 0x0b, 0x03, 0xff, 0xf8, 0x0e, 0xdd,
  0xeb, 0x1a, 0xf4, 0x14, 0xf2, 0x15, 0x1e, 0x10, 0x11, 0xf7, 0xf5, 0xef,
  0xf1, 0xfe, 0x02, 0xe1, 0xf7, 0x0c, 0xf9, 0x18, 0x03, 0x14, 0xf9, 0xf2,
  0xfd, 0x15, 0xe9, 0xf8, 0xfb, 0x05, 0x01, 0x00, 0x18, 0x01, 0x01, 0xed,
  0xed, 0xf5, 0xfb, 0x0c, 0x13, 0xe6, 0xf9, 0xee, 0x05, 0xf9, 0xe2, 0xf2,
  0x1e, 0x19, 0x0b, 0x05, 0x0a, 0x07, 0xfb, 0xf4, 0xfc, 0x0b, 0xf6, 0xe6,
  0x07, 0xf2, 0x0e, 0x14, 0xef, 0xf6, 0x04, 0xe4, 0x0e, 0x1b, 0x03, 0xfc,
  0xe4, 0x02, 0xec, 0xf8, 0x2a, 0x11, 0x25, 0x11, 0x14, 0x0c, 0x1a, 0xe7,
  0x09, 0x04, 0xd5, 0x18, 0xee, 0x06, 0x00, 0x05, 0x19, 0xde, 0xe3, 0xf5,
  0xde, 0x07, 0x16, 0xeb, 0x0a, 0x1b, 0x0d, 0x05, 0xf5, 0xf1, 0xf2, 0xe1,
  0x1c, 0xe9, 0x1a, 0xf1, 0x0e, 0x07, 0x04, 0x19, 0xe6, 0xeb, 0xe4, 0x27,
  0xf7, 0xe3, 0xe5, 0xe7, 0xf9, 0x02, 0x06, 0xf4, 0xe2, 0x11, 0x0c, 0xfe,
  0xf2, 0x02, 0xe9, 0xdc, 0xfa, 0xee, 0x1f, 0xe7, 0x33, 0xf2, 0xf7, 0x0e,
  0x0c, 0x04, 0x12, 0x1b, 0xf4, 0xe8, 0xd8, 0x11, 0xf1, 0x19, 0xe7, 0xf5,
  0xf7, 0xdf, 0x10, 0xe1, 0x12, 0x1d, 0xff, 0x09, 0x04, 0xed, 0xf5, 0xec,
  0xfa, 0x13, 0xe3, 0xde, 0x0d, 0x0d, 0xff, 0xeb, 0x0f, 0xf8, 0xeb, 0xe7,
  0xe8, 0xde, 0xf8, 0x0e, 0x04, 0xec, 0x20, 0xe7, 0xd3, 0xf1, 0xfd, 0x08,
  0xf5, 0x19, 0x17, 0xe2, 0xe6, 0x0b, 0xf0, 0xf0, 0xe6, 0x18, 0xe5, 0x10,
  0x04, 0x19, 0xea, 0xff, 0x1f, 0x12, 0xed, 0xf5, 0xfc, 0xf0, 0xe3, 0x0d,
  0x18, 0x0a, 0x0d, 0xf3, 0x15, 0x0c, 0x12, 0xff, 0xf7, 0xf9, 0xf5, 0xf5,
  0x01, 0x01, 0xe3, 0xf7, 0x08, 0x1d, 0xf5, 0xf7, 0xed, 0xe3, 0x0b, 0xee,
  0xe4, 0x1a, 0x1f, 0xff, 0x10, 0x0d, 0xf7, 0x1d, 0x11, 0xe2, 0x02, 0xe5,
  0xf3, 0xfd, 0xe1, 0x1f, 0x0d, 0xea, 0x00, 0x03, 0x02, 0x10, 0xf7, 0xfa,
  0x20, 0x19, 0x0e, 0x0b, 0xf7, 0x0d, 0xf5, 0x11, 0xe4, 0x12, 0xe2, 0xf7,
  0xfe, 0x1c, 0xf9, 0xe7, 0xf9, 0xee, 0xf5, 0x1f, 0xef, 0x11, 0x02, 0x16,
  0x0e, 0x02, 0xf3, 0x0d, 0xf7, 0x0a, 0xed, 0x0b, 0xee, 0x07, 0xef, 0xf5,
  0xf3, 0xff, 0xe8, 0x09, 0xf1, 0x16, 0xe0, 0xfa, 0x00, 0x08, 0xfa, 0xea,
  0xf3, 0x1d, 0xec, 0xf1, 0x02, 0xea, 0xfd, 0x12, 0xf8, 0xf5, 0x0b, 0xee,
  0xf1, 0x25, 0xec, 0xe5, 0x21, 0x09, 0x1d, 0xe7, 0xe1, 0xe8, 0x1c, 0x18,
  0xf8, 0x0f, 0xe7, 0x28, 0xe4, 0x0e, 0x0b, 0x15, 0x02, 0xec, 0xe4, 0x1e,
  0x19, 0x1c, 0xe1, 0x16, 0xf1, 0x1c, 0xe0, 0xe5, 0x06, 0x13, 0xe6, 0xfb,
  0xe9, 0x10, 0x0e, 0xed, 0x15, 0x1c, 0xe0, 0xf8, 0x01, 0xfb, 0xf4, 0x02,
  0x4a, 0xe6, 0xfb, 0x0f, 0x09, 0x03, 0xe7, 0xfd, 0x39, 0x10, 0x1a, 0x21,
  0x22, 0x05, 0xf6, 0xf2, 0x12, 0xdf, 0x0b, 0x1d, 0x0f, 0xe0, 0xef, 0x09,
  0x17, 0x06, 0xf9, 0x15, 0x02, 0xe5, 0x1a, 0x02, 0xee, 0xfd, 0xfe, 0x07,
  0xec, 0x07, 0x1e, 0x16, 0xe9, 0x03, 0x13, 0xf4, 0xfd, 0xfe, 0xe3, 0x1b,
  0x00, 0x09, 0xe7, 0xe4, 0x10, 0xe0, 0xfb, 0xf8, 0xef, 0x13, 0x19, 0x04,
  0x0c, 0x15, 0x08, 0xfe, 0x04, 0xe9, 0xeb, 0x07, 0xee, 0xf6, 0x0d, 0x12,
  0xcf, 0x07, 0xed, 0xdd, 0x0a, 0xe8, 0x0a, 0xf7, 0x00, 0xf5, 0xf5, 0x1c,
  0xff, 0x0a, 0xe5, 0x03, 0xd4, 0x17, 0xa8, 0xec, 0xde, 0x25, 0x05, 0x2d,
  0x02, 0xf0, 0x1c, 0x0d, 0x15, 0x15, 0xfd, 0xe3, 0x0f, 0xed, 0x0e, 0x15,
  0x18, 0xbc, 0x1e, 0x17, 0xec, 0x01, 0x0e, 0x04, 0x0e, 0x08, 0xf7, 0x1d,
  0xe6, 0xdb, 0x18, 0xef, 0xee, 0xe3, 0x18, 0xec, 0xf3, 0xef, 0x17, 0xd3,
  0x19, 0x19, 0x0a, 0xe2, 0x00, 0x07, 0xf9, 0x19, 0x12, 0x14, 0x07, 0x24,
  0xe1, 0x05, 0xe1, 0xeb, 0xe4, 0xec, 0x19, 0xed, 0xea, 0x1c, 0xee, 0xe7,
  0x1c, 0x14, 0xfc, 0x02, 0xf9, 0xe9, 0x0a, 0x0b, 0x1a, 0x15, 0x10, 0xee,
  0x1c, 0xe3, 0x1f, 0x1f, 0x0b, 0x1c, 0x20, 0xff, 0x15, 0xf7, 0xf0, 0xf6,
  0x05, 0x06, 0xe8, 0xee, 0xf9, 0xe8, 0xf1, 0xf7, 0x12, 0x04, 0xf5, 0x15,
  0xf5, 0xf0, 0xe3, 0xe9, 0x1d, 0xf3, 0xee, 0xe6, 0xf4, 0x0d, 0xea, 0x02,
  0x05, 0xfd, 0xf8, 0xfa, 0x0a, 0x00, 0xee, 0xe7, 0xed, 0xf6, 0xf3, 0x12,
  0x16, 0x18, 0xf0, 0x02, 0xfa, 0x19, 0x00, 0x17, 0x0f, 0x0f, 0xef, 0x1c,
  0xf1, 0xeb, 0xea, 0x01, 0x09, 0xea, 0xe8, 0xf8, 0xe7, 0x1a, 0xf7, 0xec,
  0xf5, 0xf9, 0x10, 0x0c, 0xde, 0x13, 0x05, 0xeb, 0xed, 0xfe, 0x03, 0x22,
  0xf4, 0x0d, 0x00, 0x0c, 0xe0, 0x0f, 0x05, 0xf4, 0x21, 0x05, 0x1b, 0x0b,
  0x33, 0xe9, 0x08, 0xf6, 0x17, 0x14, 0xf6, 0xe1, 0xf8, 0xfc, 0x16, 0x0f,
  0x07, 0xf7, 0xf7, 0x06, 0xf0, 0x01, 0x0a, 0xe6, 0xec, 0xf4, 0x06, 0xf6,
  0xe3, 0x19, 0xef, 0x1b, 0xe4, 0x11, 0x17, 0xf8, 0xe5, 0xf3, 0xf2, 0xfd,
  0x01, 0x00, 0x19, 0x1b, 0xfb, 0xf1, 0xf9, 0xf3, 0xf4, 0xf2, 0xec, 0xe1,
  0x1c, 0xe5, 0xf3, 0xfb, 0x00, 0xe2, 0xfb, 0xee, 0xec, 0xef, 0xe9, 0xfa,
  0xfc, 0xfb, 0xee, 0xe0, 0xf0, 0x1c, 0xf4, 0xfd, 0xe3, 0xf7, 0xf3, 0x0b,
  0xf2, 0xf2, 0xff, 0xff, 0x04, 0x00, 0x00, 0x00, 0x00, 0x03, 0x00, 0x00,
  0x9e, 0xf9, 0xf6, 0xbd, 0xef, 0x44, 0x7e, 0x3e, 0xc3, 0x89, 0x98, 0x3d,
  0xbd, 0xe3, 0xa1, 0xbe, 0x2a, 0xa4, 0xf5, 0x3d, 0x9f, 0x11, 0x85, 0x3e,
  0x32, 0x9a, 0x70, 0xbe, 0xe7, 0x93, 0x48, 0xbe, 0x0f, 0x31, 0xf1, 0x3c,
  0x01, 0x6e, 0x39, 0x3e, 0x37, 0x7a, 0xeb, 0xbc, 0xc8, 0x30, 0x93, 0xbe,
  0xaf, 0x89, 0xdf, 0x3d, 0xcc, 0xdf, 0x32, 0xbe, 0x54, 0x69, 0x14, 0xbe,
  0x25, 0x26, 0x5c, 0xbe, 0x61, 0xf9, 0xb8, 0xbd, 0xef, 0x7a, 0x5a, 0x3e,
  0xda, 0x98, 0xf4, 0xbd, 0x3d, 0xa4, 0x86, 0xbe, 0x3c, 0xc3, 0xf7, 0xbd,
  0xba, 0x12, 0x4d, 0xbd, 0x21, 0x33, 0x33, 0x3e, 0x84, 0xb5, 0x87, 0xbd,
  0x58, 0x3d, 0x1d, 0xbe, 0xa1, 0x92, 0x98, 0x3e, 0xea, 0x4a, 0xa5, 0xbe,
  0x24, 0x83, 0x57, 0xbd, 0xdd, 0x75, 0x2d, 0xbe, 0x3b, 0xe9, 0x23, 0xbe,
  0xcf, 0x0a, 0x02, 0xbe, 0x23, 0xa2, 0xa3, 0x3e, 0x4c, 0x14, 0xa7, 0xbe,
  0xd1, 0x04, 0x4f, 0x3e, 0x0b, 0xce, 0x94, 0x3c, 0x9f, 0x6d, 0x15, 0x3d,
  0xb6, 0xb0, 0xf3, 0x3d, 0x01, 0xd4, 0x63, 0x3d, 0x89, 0xcf, 0xe4, 0x3c,
  0x14, 0x47, 0x30, 0xbd, 0x9f, 0xeb, 0xb6, 0xbe, 0xe6, 0xa5, 0xaa, 0x3e,
  0x0b, 0xd2, 0x41, 0x3e, 0x27, 0x17, 0x1c, 0x3d, 0x35, 0x08, 0x02, 0x3e,
  0xc9, 0x72, 0x3c, 0xbd, 0x71, 0x74, 0x80, 0xbe, 0x97, 0x7c, 0x77, 0x3e,
  0x31, 0x76, 0x87, 0xbe, 0x1c, 0x79, 0x41, 0xbe, 0x27, 0xaa, 0x83, 0xbe,
  0x59, 0xe8, 0xce, 0x3c, 0xfe, 0x95, 0xa2, 0xbd, 0x97, 0x9e, 0x98, 0xbd,
  0x11, 0x0d, 0xa8, 0xbc, 0xd2, 0x81, 0xf7, 0xbd, 0xab, 0x5f, 0x9f, 0x3e,
  0x6e, 0x43, 0x32, 0x3e, 0x5e, 0x40, 0x97, 0xbd, 0xf9, 0x79, 0x4b, 0x3d,
  0x52, 0x69, 0x95, 0xbe, 0xbc, 0x29, 0x6f, 0x3d, 0x1d, 0x35, 0x50, 0x3e,
  0xdc, 0xf5, 0x89, 0x3d, 0x18, 0x67, 0xa3, 0xbe, 0x19, 0x2b, 0x6e, 0x3e,
  0x8d, 0x7f, 0x7b, 0xbe, 0x6c, 0xab, 0x4a, 0xbe, 0x0f, 0x42, 0x09, 0xbe,
  0x11, 0x0e, 0x3d, 0x3e, 0x9f, 0x90, 0xdd, 0xbd, 0xeb, 0xf6, 0xe3, 0x3d,
  0x5f, 0xf8, 0x02, 0x3e, 0xdb, 0x24, 0x47, 0x3d, 0xe1, 0xd0, 0x8b, 0xbe,
  0xbf, 0x27, 0xb7, 0xbd, 0x50, 0x7d, 0xf6, 0x3d, 0xb2, 0xf9, 0xe8, 0x3d,
  0x82, 0x10, 0x26, 0x3b, 0x39, 0xd7, 0xf8, 0x3d, 0x7a, 0x8d, 0x06, 0xbe,
  0x6a, 0x69, 0x10, 0x3e, 0xbf, 0xc1, 0x89, 0xbe, 0x56, 0xd7, 0xad, 0x39,
  0xf9, 0x61, 0x27, 0x3e, 0xc9, 0xea, 0x52, 0xbe, 0xcb, 0x3b, 0x85, 0xbd,
  0xe5, 0xa2, 0x96, 0xbe, 0xa1, 0xa4, 0x01, 0xbe, 0xee, 0x97, 0x1c, 0x3e,
  0xc6, 0xa9, 0xa2, 0xbd, 0xb8, 0x63, 0x33, 0xbd, 0xf3, 0x4d, 0x6f, 0xbe,
  0xce, 0xce, 0x88, 0x3d, 0x71, 0x35, 0x2d, 0x3e, 0x62, 0x6f, 0x3f, 0x3e,
  0x59, 0x2e, 0xaf, 0x3c, 0xeb, 0x12, 0x17, 0x3e, 0x26, 0x58, 0xb2, 0xbe,
  0x59, 0x43, 0x49, 0xbe, 0xdc, 0x6b, 0x36, 0xbe, 0x42, 0x93, 0x14, 0xbe,
  0xc0, 0x41, 0xca, 0xbc, 0xf0, 0x92, 0xc1, 0xbc, 0xf8, 0xd1, 0x0f, 0xbd,
  0xf3, 0xa5, 0x15, 0x3e, 0x23, 0x0c, 0xc4, 0x3c, 0x9c, 0xaa, 0x86, 0x3e,
  0xd4, 0x5f, 0x93, 0x3d, 0x9c, 0x88, 0x42, 0xbe, 0x9f, 0x80, 0x5e, 0x3e,
  0x4f, 0xa0, 0x49, 0x3e, 0x91, 0xde, 0x72, 0xbe, 0x39, 0x7e, 0x56, 0xbe,
  0x18, 0x71, 0x04, 0x3e, 0xc7, 0x0e, 0x61, 0x3e, 0x31, 0xa0, 0x52, 0x3e,
  0x02, 0x6a, 0xf6, 0xbd, 0xe3, 0x46, 0x1e, 0xbe, 0x3b, 0x44, 0x89, 0x3e,
  0x60, 0xec, 0x7b, 0x3e, 0xfa, 0xc8, 0xe3, 0x3d, 0xe8, 0x54, 0x1f, 0xbe,
  0x0b, 0xb3, 0x80, 0xbc, 0x02, 0xd6, 0xed, 0x3d, 0xa9, 0x5a, 0x0a, 0x3e,
  0xc8, 0xa7, 0x23, 0xbd, 0x80, 0x64, 0xd1, 0xbb, 0xe4, 0x7a, 0x7b, 0xbe,
  0x63, 0x47, 0x1e, 0x3e, 0x1d, 0x55, 0xc2, 0xbd, 0x04, 0x29, 0x4d, 0x3e,
  0xdd, 0x11, 0xe2, 0x3d, 0x50, 0xed, 0x86, 0xbe, 0x1f, 0xf7, 0xb6, 0xbd,
  0x43, 0x1e, 0x1e, 0xbe, 0x06, 0x24, 0x86, 0xbe, 0xeb, 0x20, 0xdf, 0x3d,
  0x81, 0x80, 0x85, 0xbb, 0x40, 0x2b, 0x28, 0x3d, 0x64, 0xe7, 0x72, 0xbb,
  0x7c, 0x2d, 0x89, 0xbe, 0x0a, 0x80, 0x71, 0xbe, 0x8e, 0x47, 0x2d, 0xbe,
  0xf2, 0x62, 0x61, 0x3d, 0x57, 0x7c, 0xa1, 0xbe, 0xe5, 0xd3, 0x30, 0x3d,
  0xfd, 0xb8, 0x36, 0x3d, 0xa0, 0xaf, 0xf2, 0x3a, 0x98, 0x0f, 0x0c, 0xbe,
  0x05, 0xe9, 0x0e, 0x3e, 0x31, 0x9a, 0x16, 0x3d, 0x43, 0x8d, 0x1b, 0x3e,
  0x3b, 0x05, 0xcc, 0xbe, 0xe6, 0x36, 0x9f, 0x3d, 0x5a, 0x2f, 0x21, 0xbd,
  0x32, 0x4c, 0x22, 0x3e, 0xa1, 0x4f, 0xc0, 0xbd, 0x18, 0x83, 0xbe, 0xbd,
  0xef, 0x0a, 0xcc, 0x3d, 0xea, 0x56, 0x6b, 0xbe, 0xaa, 0x38, 0x9a, 0x3d,
  0x8d, 0x9c, 0xc6, 0xbd, 0x93, 0xca, 0x34, 0x3e, 0xe4, 0x6e, 0x7e, 0x3e,
  0xb6, 0xb0, 0x30, 0x3d, 0xcb, 0x9e, 0x5d, 0xbd, 0xfd, 0x7d, 0xe7, 0xbd,
  0x78, 0x92, 0x26, 0xbd, 0x16, 0xae, 0x36, 0xbd, 0x04, 0x36, 0xa1, 0x3e,
  0xcc, 0xbb, 0xba, 0xbe, 0xad, 0x75, 0xa2, 0x3d, 0x90, 0x29, 0x88, 0x3d,
  0xaa, 0x41, 0x8a, 0xbe, 0x16, 0x76, 0x53, 0x3e, 0x28, 0xae, 0x1c, 0x3d,
  0xc5, 0x0f, 0x56, 0x3d, 0xd1, 0x8f, 0x7b, 0xbe, 0xfb, 0x45, 0xa9, 0x3e,
  0xbc, 0x7e, 0x0f, 0xbe, 0x52, 0xca, 0x31, 0x3e, 0x01, 0x16, 0x4f, 0x3e,
  0xd2, 0xda, 0x6c, 0x3d, 0x1e, 0xe5, 0x6e, 0x3d, 0x21, 0x82, 0x9d, 0x3d,
  0x6c, 0xcf, 0xc0, 0x3d, 0x34, 0x62, 0x69, 0xbe, 0xd5, 0xa8, 0x04, 0xbd,
  0x1a, 0xb5, 0xe6, 0x3b, 0xb5, 0xc9, 0x00, 0xbe, 0xa1, 0x0b, 0x34, 0x3e,
  0xfe, 0xf5, 0xff, 0xff, 0x04, 0x00, 0x00, 0x00, 0x00, 0x01, 0x00, 0x00,
  0xa0, 0xaa, 0x8b, 0x3f, 0xc6, 0xef, 0x51, 0xbf, 0xe7, 0xf5, 0xfe, 0xbc,
  0xfc, 0x2f, 0xb5, 0x3f, 0x94, 0xa1, 0x9d, 0xbf, 0xe8, 0xa0, 0x23, 0x3f,
  0x00, 0x00, 0x00, 0x00, 0x87, 0x49, 0xa0, 0x3f, 0x04, 0x98, 0x9a, 0x3e,
  0x00, 0x00, 0x00, 0x00, 0xe1, 0xf0, 0x47, 0x3e, 0x31, 0xcc, 0x8d, 0xbf,
  0x04, 0xff, 0xcf, 0xbf, 0x5e, 0x3a, 0x58, 0x3e, 0xbe, 0x43, 0xac, 0x3f,
  0x82, 0x30, 0xef, 0x3d, 0x00, 0x00, 0x00, 0x00, 0xfc, 0xa2, 0xb2, 0xbe,
  0x2b, 0xa1, 0x09, 0x3e, 0x2b, 0x93, 0x85, 0x3f, 0xdb, 0x3a, 0x11, 0xbd,
  0x94, 0xa4, 0xb8, 0x3f, 0x00, 0x00, 0x00, 0x00, 0xf4, 0x33, 0xd2, 0xbf,
  0xba, 0x3e, 0x16, 0x3f, 0xda, 0x0e, 0x1c, 0xbe, 0xb2, 0x78, 0x94, 0x3f,
  0xb1, 0x6b, 0x87, 0xbf, 0x11, 0xa4, 0xd6, 0x3f, 0xe9, 0x2b, 0x76, 0xbe,
  0x00, 0x00, 0x00, 0x00, 0x81, 0x3b, 0xb9, 0x3f, 0x61, 0x8e, 0x0a, 0xbf,
  0x00, 0x00, 0x00, 0x00, 0x00, 0x00, 0x00, 0x00, 0x12, 0xdc, 0xad, 0xbf,
  0x2e, 0x1f, 0x01, 0x40, 0xd2, 0x5e, 0xbe, 0xbf, 0x7e, 0x2c, 0x80, 0xbf,
  0xeb, 0x3f, 0xe5, 0x3e, 0xeb, 0xde, 0xd1, 0xbf, 0xde, 0x63, 0xd8, 0xbf,
  0x00, 0x00, 0x00, 0x00, 0x6e, 0xed, 0xc1, 0xbf, 0xa7, 0xd8, 0x5a, 0xbf,
  0x3e, 0x74, 0x8e, 0x3c, 0x63, 0x55, 0xc4, 0x3f, 0x00, 0x00, 0x00, 0x00,
  0x0f, 0x57, 0x33, 0xbd, 0x8b, 0xb3, 0x49, 0xbe, 0xcc, 0x65, 0x46, 0xbf,
  0x22, 0x61, 0xef, 0xbe, 0x7b, 0xe4, 0x95, 0xbf, 0x50, 0x5f, 0xf5, 0xbc,
  0x2b, 0xaa, 0xf9, 0x3e, 0xb1, 0x34, 0xbb, 0x3e, 0x73, 0x00, 0xbf, 0xbf,
  0x84, 0x52, 0xe7, 0x3d, 0xe5, 0x0b, 0x4a, 0x3e, 0x90, 0x75, 0xad, 0xbf,
  0xe6, 0xa9, 0x88, 0xbf, 0xa8, 0x1b, 0x4f, 0xbf, 0x18, 0xc5, 0xa6, 0x3f,
  0xb2, 0x8e, 0xac, 0x3f, 0x0a, 0xf7, 0xff, 0xff, 0x04, 0x00, 0x00, 0x00,
  0x80, 0x00, 0x00, 0x00, 0x05, 0x94, 0x0a, 0x3e, 0x00, 0x00, 0x00, 0x00,
  0xc0, 0xb3, 0x75, 0xbc, 0xc1, 0x6b, 0xe8, 0x3d, 0x2e, 0x73, 0x9f, 0x3f,
  0x84, 0xfa, 0xfa, 0x3e, 0x00, 0x00, 0x00, 0x00, 0x73, 0x7c, 0x5f, 0xbc,
  0x22, 0xd8, 0x84, 0x3e, 0x36, 0xdf, 0x9f, 0xbf, 0xc9, 0xfe, 0x47, 0x3f,
  0x21, 0xde, 0x41, 0x35, 0x00, 0x00, 0x00, 0x00, 0x01, 0x3e, 0x01, 0xbd,
  0x79, 0x25, 0x17, 0x3e, 0xdb, 0x40, 0x00, 0x3f, 0x3a, 0x79, 0x98, 0x3f,
  0x00, 0x00, 0x00, 0x00, 0xf0, 0x3a, 0x3f, 0xbf, 0xe4, 0xe6, 0xda, 0xbf,
  0x9c, 0xa2, 0xca, 0x3f, 0xda, 0x05, 0x4e, 0xbc, 0x63, 0x28, 0x26, 0x3f,
  0x36, 0xbb, 0x40, 0x3f, 0x00, 0x00, 0x00, 0x00, 0x00, 0x00, 0x00, 0x00,
  0x15, 0x16, 0xb9, 0xbf, 0xfb, 0x2e, 0xbe, 0x3f, 0x77, 0xfc, 0xdf, 0x3f,
  0x00, 0x00, 0x00, 0x00, 0x38, 0x2e, 0xb8, 0xbf, 0x88, 0xe4, 0x86, 0x3a,
  0x96, 0xf7, 0xff, 0xff, 0x04, 0x00, 0x00, 0x00, 0x40, 0x00, 0x00, 0x00,
  0x7a, 0xb9, 0xa6, 0x3f, 0xbe, 0xf1, 0xa2, 0x3f, 0x33, 0xb7, 0xa0, 0xbf,
  0xcc, 0x7e, 0xc3, 0xbf, 0x04, 0x6c, 0x65, 0x3f, 0x57, 0xae, 0x8b, 0x3e,
  0x07, 0x9b, 0x85, 0x3d, 0x4d, 0x17, 0xa1, 0x3f, 0x36, 0xae, 0x53, 0x3f,
  0x50, 0x75, 0xe7, 0xbe, 0x00, 0xcb, 0x85, 0xbe, 0x69, 0x58, 0xa4, 0xbf,
  0x01, 0x94, 0xb6, 0x3f, 0x51, 0x66, 0xbe, 0x3f, 0x0b, 0x4d, 0x7d, 0xbf,
  0xb6, 0xb9, 0x73, 0xbf, 0xe2, 0xf7, 0xff, 0xff, 0x04, 0x00, 0x00, 0x00,
  0x04, 0x00, 0x00, 0x00, 0x89, 0xaf, 0x9f, 0xbf, 0xf2, 0xf7, 0xff, 0xff,
  0x04, 0x00, 0x00, 0x00, 0x00, 0x08, 0x00, 0x00, 0xa1, 0xfb, 0x89, 0x3e,
  0xdd, 0xe9, 0xac, 0x3e, 0xf9, 0xcf, 0xb8, 0x3c, 0xaf, 0xfb, 0x06, 0x3b,
  0xea, 0x8d, 0x6c, 0x3e, 0xfb, 0x26, 0x82, 0x3e, 0x87, 0xab, 0x55, 0xbe,
  0x25, 0x05, 0xcb, 0xbd, 0xec, 0xcc, 0xd4, 0xbe, 0xad, 0x4d, 0x26, 0x3e,
  0xbe, 0x4e, 0x24, 0xbe, 0xcc, 0xf7, 0x06, 0x3e, 0xb5, 0xf6, 0x8e, 0xbe,
  0xc7, 0xa7, 0x7b, 0x3c, 0xf8, 0x80, 0x02, 0x3e, 0x4a, 0x39, 0x4b, 0xbe,
  0xba, 0x84, 0xdc, 0x3d, 0x66, 0xe1, 0x65, 0x3e, 0x5c, 0x74, 0x63, 0xbe,
  0xcf, 0xe1, 0x8b, 0xbd, 0x97, 0x54, 0x31, 0xbc, 0x5f, 0x6d, 0x41, 0x3e,
  0xa4, 0xa5, 0x74, 0x3e, 0x62, 0xec, 0x39, 0x3d, 0xe7, 0x60, 0x9c, 0x3e,
  0xc0, 0x06, 0xfa, 0x3c, 0xaa, 0x58, 0x07, 0xbe, 0xce, 0xc2, 0x3d, 0xbe,
  0x93, 0xbb, 0xed, 0x3d, 0x50, 0xbe, 0x72, 0xbd, 0xa9, 0x4d, 0x85, 0xbd,
  0x33, 0x1c, 0xf7, 0xbd, 0x26, 0x40, 0x84, 0x3e, 0x5e, 0x4d, 0x17, 0x3e,
  0x76, 0x3a, 0x97, 0x3e, 0x31, 0x36, 0x95, 0x3e, 0x38, 0x6f, 0xf5, 0xbc,
  0xd3, 0xe4, 0xb7, 0x3e, 0xb0, 0xa8, 0x68, 0xbe, 0xa6, 0x77, 0x40, 0x3e,
  0x47, 0xfb, 0x1e, 0xbe, 0x63, 0x27, 0xe2, 0xbd, 0xc9, 0x70, 0xf6, 0x3c,
  0x55, 0xc8, 0xd0, 0xbc, 0xe8, 0x0d, 0xf8, 0x3d, 0x72, 0x83, 0xb5, 0xbe,
  0x0d, 0xd7, 0x26, 0x3e, 0x10, 0xde, 0x81, 0x3e, 0x08, 0x7d, 0x94, 0x3e,
  0xb7, 0x3d, 0x9a, 0x3e, 0xb5, 0x6a, 0xe9, 0x3d, 0x60, 0x5f, 0x1e, 0x3e,
  0x32, 0x89, 0x18, 0xbe, 0x89, 0x3f, 0x65, 0x3d, 0x4b, 0x86, 0x5c, 0x3e,
  0x40, 0x6f, 0xc5, 0xbd, 0x2c, 0xe5, 0xc6, 0x3d, 0x10, 0x2a, 0x45, 0xbd,
  0xef, 0x2a, 0x97, 0xbe, 0xf8, 0x44, 0x99, 0x3e, 0x21, 0xdb, 0x19, 0x3e,
  0x10, 0xf9, 0xa2, 0x3d, 0x88, 0x8c, 0x46, 0xbd, 0xca, 0x53, 0x7f, 0xbe,
  0x98, 0x12, 0x5f, 0x3d, 0xdf, 0x9f, 0x8f, 0x3e, 0xf4, 0x82, 0x99, 0x3e,
  0x60, 0x98, 0x87, 0x3e, 0xec, 0xc0, 0x46, 0x3e, 0x4f, 0x99, 0x0d, 0xbd,
  0x7c, 0x76, 0x88, 0x3d, 0xde, 0x8d, 0x05, 0xbe, 0xfd, 0x95, 0x34, 0x3c,
  0x21, 0x65, 0x32, 0xbe, 0xc6, 0x11, 0xfb, 0x3d, 0x6f, 0x6b, 0x71, 0xbd,
  0x1e, 0x89, 0x86, 0xbe, 0x82, 0x83, 0x8f, 0xbe, 0xd1, 0x72, 0x0f, 0xbe,
  0xd6, 0x37, 0x07, 0xbe, 0xc0, 0xe8, 0x44, 0x3d, 0x07, 0x2e, 0x9a, 0xbe,
  0x83, 0x3f, 0x28, 0x3e, 0x30, 0x02, 0xb0, 0x3e, 0x61, 0x97, 0x0e, 0x3d,
  0xe2, 0xb6, 0x6b, 0x3e, 0x24, 0x62, 0x92, 0x3e, 0x42, 0xa8, 0xb0, 0xbd,
  0xb0, 0x9a, 0x3b, 0x3d, 0x0c, 0xce, 0x58, 0xbe, 0xf7, 0x99, 0x9c, 0x3e,
  0x55, 0xf2, 0xb3, 0x3c, 0xaf, 0xe7, 0xff, 0x3d, 0x10, 0x7c, 0x83, 0xbe,
  0x70, 0x56, 0xfc, 0xbd, 0x37, 0x4b, 0x84, 0x3e, 0x4c, 0x5d, 0x24, 0xbe,
  0x36, 0xee, 0xa5, 0xbe, 0xcd, 0x5d, 0x96, 0xbe, 0x86, 0x59, 0x0c, 0xbe,
  0x9d, 0x5b, 0x33, 0xbe, 0x89, 0x10, 0x96, 0xbe, 0x4e, 0xf4, 0x73, 0x3e,
  0x15, 0xf5, 0xa6, 0xbe, 0x2a, 0x21, 0xd7, 0xbd, 0x1a, 0xf5, 0xba, 0x3e,
  0x02, 0x6d, 0xcb, 0xbe, 0x09, 0x08, 0x43, 0xbe, 0x06, 0x65, 0x7e, 0x3e,
  0xc3, 0x56, 0x8f, 0xbe, 0x14, 0xa5, 0xe4, 0x3d, 0x27, 0xba, 0x26, 0x3d,
  0x80, 0x4f, 0x49, 0xbe, 0x48, 0x03, 0x5b, 0x3d, 0x8f, 0x28, 0x86, 0x3e,
  0xb6, 0x84, 0xa6, 0x3e, 0x9b, 0x96, 0xa5, 0xbe, 0xcb, 0x57, 0x7e, 0xbd,
  0x1a, 0xbf, 0x24, 0xbe, 0x01, 0xc4, 0x1c, 0xbe, 0xdc, 0x7c, 0xbb, 0xbd,
  0x14, 0x46, 0xeb, 0x3d, 0x73, 0x11, 0xa6, 0x3e, 0x98, 0x34, 0x1f, 0xbe,
  0xba, 0xfb, 0x60, 0xbe, 0x1a, 0x7f, 0x5b, 0x3e, 0x6d, 0xf0, 0x88, 0x3e,
  0x5b, 0x77, 0x93, 0x3e, 0x92, 0x24, 0x9e, 0x3e, 0x20, 0x13, 0x19, 0xbc,
  0x3f, 0x3c, 0x19, 0xbe, 0xfd, 0x89, 0x0e, 0xbe, 0x27, 0xda, 0x92, 0x3e,
  0x99, 0x99, 0x92, 0x3d, 0x2f, 0xd1, 0x37, 0xbe, 0xa7, 0x9a, 0x75, 0xbe,
  0x5a, 0x8f, 0x2b, 0x3e, 0xa2, 0xff, 0x05, 0xbf, 0x01, 0xf2, 0x09, 0x3f,
  0xb0, 0x97, 0x61, 0xbe, 0x7c, 0xf9, 0x87, 0xbe, 0x00, 0x8a, 0x83, 0x3c,
  0x28, 0x4a, 0x13, 0xbd, 0x10, 0xf5, 0x98, 0x3e, 0xef, 0xc1, 0xe6, 0x3d,
  0x4e, 0xbe, 0x6b, 0xbe, 0x0a, 0xe8, 0x7e, 0x3e, 0x39, 0x15, 0x0b, 0xbf,
  0x47, 0xdf, 0xe5, 0xbb, 0xb2, 0xf6, 0x32, 0x3e, 0x4a, 0x97, 0x85, 0xbe,
  0x40, 0x75, 0x9f, 0x3d, 0x08, 0x49, 0x74, 0xbe, 0x0e, 0xfa, 0x78, 0x3e,
  0xb1, 0x38, 0xce, 0xbe, 0x51, 0x5c, 0xc2, 0x3e, 0x51, 0x71, 0xa6, 0x3e,
  0x40, 0xbc, 0xb6, 0x3c, 0x90, 0x39, 0x80, 0xbe, 0x19, 0xa2, 0x9c, 0xbe,
  0xd0, 0x95, 0xee, 0xbd, 0x94, 0xc4, 0xb2, 0xbe, 0x7f, 0x0f, 0x82, 0x3e,
  0x0f, 0x72, 0x93, 0x3e, 0xef, 0x40, 0xe5, 0xbe, 0xce, 0x84, 0xae, 0x3e,
  0x42, 0x5f, 0x64, 0xbe, 0x37, 0x48, 0x4b, 0x3e, 0xcf, 0x83, 0x7b, 0xbe,
  0xe9, 0xf4, 0x80, 0xbe, 0x1e, 0x46, 0x75, 0x3e, 0x79, 0x46, 0x9b, 0xbd,
  0x85, 0x81, 0x8b, 0x3e, 0x80, 0x61, 0xff, 0x3d, 0x0a, 0x0b, 0x34, 0xbd,
  0xa6, 0x37, 0x32, 0x3e, 0xe6, 0x9a, 0xdb, 0x3c, 0x22, 0x28, 0x78, 0x3e,
  0x9d, 0x96, 0xe5, 0xbe, 0x42, 0x6d, 0x8c, 0x3e, 0x28, 0xf8, 0x60, 0x3d,
  0xee, 0x89, 0x14, 0x3e, 0x28, 0x61, 0x76, 0x3e, 0x9d, 0x76, 0x81, 0x3e,
  0x50, 0xaf, 0x9d, 0xbc, 0x2b, 0xb0, 0xa2, 0x3e, 0xb0, 0xba, 0xbc, 0xbd,
  0x82, 0x8f, 0xcb, 0xbc, 0xd9, 0x50, 0xdb, 0xbe, 0x8b, 0x3d, 0xa5, 0x3e,
  0x95, 0xe8, 0x55, 0x3d, 0xd3, 0xac, 0x5c, 0x3e, 0x63, 0x85, 0x0a, 0xbe,
  0x78, 0xfd, 0x63, 0xbd, 0xaf, 0x08, 0xa0, 0xbe, 0xb6, 0x65, 0x92, 0xbd,
  0x5e, 0xd1, 0x9d, 0xbe, 0x68, 0x4c, 0x28, 0x3d, 0x8e, 0xe7, 0x69, 0x3e,
  0x94, 0x5c, 0x40, 0xbb, 0x07, 0xd0, 0x4a, 0x3e, 0x97, 0xd9, 0x25, 0xbb,
  0x69, 0x75, 0x8e, 0xbe, 0xfc, 0xbd, 0x98, 0xbd, 0x40, 0xcc, 0x2b, 0x3c,
  0xd0, 0x1f, 0x8d, 0x3d, 0xbd, 0x52, 0xa7, 0xbd, 0xf8, 0x55, 0xef, 0x3b,
  0xdb, 0x6f, 0x1e, 0xbe, 0xcc, 0x7b, 0xea, 0xbd, 0x4f, 0x63, 0xe3, 0x3d,
  0x27, 0xbc, 0xc1, 0xba, 0x22, 0x31, 0x0c, 0xbe, 0x80, 0x62, 0xc4, 0xbd,
  0xa0, 0x1a, 0x9b, 0xbe, 0x93, 0xc2, 0x36, 0x3e, 0xf8, 0x1f, 0xe3, 0x3d,
  0x02, 0x08, 0xa7, 0xbe, 0x99, 0xa8, 0x4b, 0x3e, 0x40, 0x7d, 0x9a, 0x3d,
  0xd2, 0x64, 0x87, 0xbe, 0x20, 0xdf, 0x13, 0x3d, 0xb6, 0xa6, 0x22, 0x3d,
  0xb6, 0x85, 0x02, 0xbe, 0x33, 0xc7, 0x14, 0xbe, 0xf3, 0xac, 0x75, 0xbe,
  0xa9, 0x1a, 0x04, 0xbe, 0x33, 0xf6, 0x3f, 0x3e, 0xdc, 0xaf, 0xdf, 0xbc,
  0xd5, 0x64, 0x4f, 0x3e, 0x40, 0xcc, 0x1c, 0x3d, 0xff, 0xfd, 0x1a, 0x3e,
  0xc7, 0x4f, 0x2b, 0xbc, 0x85, 0xf4, 0xa2, 0x3e, 0x1c, 0x9f, 0xc9, 0xbd,
  0xff, 0x63, 0x9d, 0x3e, 0x2e, 0x65, 0x30, 0x3e, 0x97, 0x42, 0xb9, 0xbc,
  0x74, 0x47, 0x30, 0x3e, 0xfa, 0xab, 0x11, 0x3e, 0x20, 0x88, 0xac, 0xbd,
  0x40, 0xa4, 0xa4, 0xbe, 0x50, 0xfc, 0x08, 0xbc, 0xeb, 0x0e, 0xb3, 0xbc,
  0xa7, 0x80, 0x6a, 0x3e, 0xe1, 0x1a, 0x36, 0x3e, 0x84, 0xd2, 0xd4, 0xbd,
  0x1d, 0xa4, 0xb0, 0xbc, 0x95, 0x45, 0xa0, 0x3e, 0xf7, 0xc1, 0x87, 0xbe,
  0x1b, 0xdb, 0x32, 0xbe, 0xf0, 0x18, 0x85, 0x3e, 0x92, 0x78, 0x12, 0x3e,
  0xc7, 0x39, 0x88, 0xbe, 0x97, 0xa1, 0x1a, 0xbb, 0x86, 0xb8, 0xa3, 0x3d,
  0xa2, 0x31, 0xbf, 0x3d, 0x50, 0x87, 0x9a, 0x3d, 0xc9, 0x1e, 0xa0, 0x3e,
  0xe2, 0x0b, 0xc5, 0xbe, 0x3c, 0x1b, 0x3f, 0x3e, 0x1e, 0x58, 0xe9, 0xbd,
  0x53, 0xc7, 0xab, 0x3e, 0xc6, 0x85, 0xec, 0xbd, 0x59, 0xa5, 0x41, 0x3f,
  0xb8, 0x32, 0xd3, 0xbe, 0x8c, 0x88, 0xb3, 0x3e, 0xc7, 0x16, 0x8b, 0x3e,
  0xd2, 0xb3, 0xe4, 0xbd, 0x40, 0x21, 0xec, 0xbb, 0x27, 0xfe, 0x87, 0x3e,
  0x4d, 0x40, 0x86, 0x3e, 0x39, 0xb3, 0x53, 0xbe, 0x65, 0x91, 0xa5, 0xbe,
  0xa6, 0x1f, 0x83, 0x3e, 0xb5, 0x98, 0xf8, 0xbe, 0xff, 0x57, 0x51, 0x3e,
  0x78, 0xdb, 0x40, 0x3e, 0xe6, 0x98, 0x52, 0x3e, 0x49, 0x2e, 0x99, 0xbd,
  0x98, 0xfd, 0x5f, 0x3d, 0x58, 0xf6, 0x72, 0xbd, 0xc4, 0x52, 0x47, 0xbe,
  0x0d, 0xd5, 0xf9, 0x3d, 0xa2, 0x6b, 0x81, 0x3e, 0x48, 0xab, 0x05, 0xbe,
  0x87, 0x22, 0x11, 0xbe, 0xfd, 0xd7, 0xbc, 0x3e, 0xef, 0xaf, 0x4b, 0xbe,
  0x2e, 0x73, 0x6e, 0xbe, 0x47, 0x00, 0x69, 0xbe, 0x82, 0x7a, 0x42, 0xba,
  0xb9, 0x1c, 0x66, 0x3e, 0xce, 0xa0, 0x05, 0x3e, 0x73, 0x55, 0xb1, 0xbe,
  0x1c, 0x0c, 0xa0, 0x3d, 0x1c, 0xa9, 0x9f, 0x3c, 0xfe, 0x02, 0x11, 0xbe,
  0xb5, 0x5b, 0x5a, 0xbe, 0x0c, 0x75, 0xb4, 0x3d, 0x02, 0xe0, 0x9a, 0xbe,
  0x5c, 0x36, 0xa8, 0xbd, 0xfe, 0x1e, 0x16, 0xbd, 0x4b, 0x65, 0x8b, 0xbc,
  0xd1, 0x42, 0x0a, 0xbf, 0x20, 0x87, 0xd3, 0x3d, 0x3e, 0xbf, 0x07, 0x3f,
  0xd3, 0xa0, 0xf5, 0x3d, 0x8e, 0x2f, 0x2d, 0x3e, 0x85, 0x16, 0x35, 0xbd,
  0x48, 0xb0, 0x1b, 0xbf, 0x42, 0x00, 0xff, 0xbd, 0x31, 0x26, 0x81, 0x3e,
  0xe8, 0xe9, 0x6a, 0xbe, 0x06, 0xaf, 0x99, 0xbd, 0xcf, 0x80, 0x07, 0xbf,
  0x11, 0x9f, 0x6e, 0x3d, 0xa0, 0xd0, 0x4e, 0x3c, 0xd4, 0x00, 0x95, 0x3e,
  0x07, 0x02, 0x9a, 0x3e, 0x78, 0x92, 0x33, 0xbe, 0xac, 0x47, 0x8d, 0xbd,
  0xc0, 0x39, 0xb4, 0x3d, 0x38, 0x25, 0x3f, 0xbe, 0x20, 0xb1, 0x14, 0xbd,
  0x8d, 0x59, 0xed, 0x3e, 0xe8, 0x62, 0x7f, 0x3d, 0xaa, 0x4c, 0x3b, 0x3e,
  0x5c, 0x74, 0x00, 0x3f, 0x53, 0xb2, 0xd5, 0xbd, 0x7b, 0xd4, 0x12, 0xbe,
  0xaf, 0x8d, 0xab, 0x3e, 0x38, 0xf8, 0xe3, 0xbd, 0x05, 0x34, 0x9f, 0x3e,
  0xdc, 0x3a, 0xd1, 0xbd, 0x82, 0x9a, 0x36, 0x3c, 0x36, 0x89, 0xb9, 0xbe,
  0x30, 0xac, 0xd0, 0x3d, 0xf9, 0x7f, 0x85, 0x3d, 0x14, 0xdc, 0x4c, 0xbe,
  0xaf, 0x89, 0x76, 0xbe, 0x24, 0xb5, 0x92, 0xbd, 0xdf, 0x5f, 0x0c, 0x3c,
  0xa2, 0x6d, 0x1c, 0x3d, 0x20, 0xed, 0xd1, 0x3d, 0x30, 0x2b, 0xf5, 0x3d,
  0xc2, 0xe4, 0xb2, 0x3e, 0x29, 0xd2, 0x13, 0xbe, 0x74, 0x5c, 0x87, 0xbe,
  0x2f, 0x25, 0xa5, 0x3e, 0xe3, 0x09, 0x08, 0x3e, 0x04, 0x5a, 0xe4, 0xbd,
  0xb4, 0xbe, 0x28, 0x3e, 0x10, 0x5c, 0x1d, 0xbd, 0xfb, 0xe9, 0x80, 0xbe,
  0xd1, 0x40, 0xa9, 0x3d, 0xfe, 0x8d, 0xd7, 0xbd, 0xd2, 0x22, 0x47, 0x3e,
  0x9b, 0x97, 0xa4, 0x3e, 0xc6, 0xf8, 0xed, 0x3c, 0x98, 0xb4, 0xa3, 0x3e,
  0xce, 0x80, 0xe9, 0x3d, 0x5c, 0x97, 0xcf, 0x3c, 0xfa, 0x0a, 0x21, 0x3e,
  0x4e, 0xc5, 0x34, 0x3e, 0xf1, 0xa7, 0x54, 0xbe, 0x29, 0x96, 0x35, 0xbe,
  0x52, 0x6b, 0xae, 0x3e, 0xd3, 0x95, 0x03, 0xbc, 0x49, 0xbe, 0xaf, 0xbe,
  0x72, 0x10, 0x38, 0xbd, 0xef, 0x56, 0xb1, 0x3e, 0x26, 0x3c, 0x09, 0x3e,
  0xb6, 0x9d, 0x12, 0x3e, 0x5a, 0xfa, 0x1e, 0x3e, 0xfb, 0x94, 0xb0, 0x3e,
  0x95, 0xc1, 0xa0, 0x3e, 0xd8, 0xd7, 0xcd, 0xbd, 0xb4, 0x98, 0xb1, 0x3e,
  0x09, 0x1e, 0x73, 0xbe, 0x4d, 0xe2, 0xaf, 0x3e, 0x82, 0x14, 0x0f, 0xbe,
  0x2c, 0xf6, 0xee, 0xbd, 0x2f, 0xd4, 0xa2, 0xbe, 0x71, 0x06, 0x5c, 0xbe,
  0x94, 0x8c, 0xa8, 0xbd, 0xa5, 0x4a, 0x78, 0xbe, 0x1a, 0xaf, 0x2d, 0x3e,
  0x73, 0x61, 0x1c, 0x3d, 0x1c, 0xdf, 0x39, 0x3e, 0x08, 0xe6, 0x03, 0x3d,
  0xd3, 0xae, 0x27, 0xbe, 0x8d, 0x63, 0xdb, 0xbe, 0x3e, 0xae, 0x13, 0xbe,
  0x6a, 0x44, 0x9e, 0xbe, 0x8c, 0xdb, 0xcf, 0x3d, 0x92, 0x9f, 0x6a, 0xbe,
  0xe9, 0x6d, 0xad, 0x3d, 0x08, 0xc8, 0xb7, 0xbe, 0x2e, 0xcf, 0x82, 0x3e,
  0xb8, 0x85, 0x9e, 0xbe, 0xd9, 0xbb, 0xab, 0x3e, 0x26, 0xe5, 0x96, 0x3e,
  0x80, 0x7a, 0x75, 0xbd, 0x9d, 0x6f, 0xa3, 0x3e, 0x08, 0xcc, 0x44, 0x3d,
  0x22, 0x72, 0xc2, 0x3c, 0xd8, 0x0e, 0x85, 0x3e, 0x4f, 0x41, 0x9b, 0x3e,
  0x3a, 0xa5, 0x12, 0xbe, 0xbf, 0x6e, 0x9a, 0x3e, 0xb6, 0x41, 0xe7, 0xbd,
  0x9f, 0xad, 0xbd, 0xbd, 0xcf, 0x06, 0x02, 0xbe, 0xbf, 0x2c, 0x1c, 0x3e,
  0xb0, 0x1e, 0x57, 0xbe, 0x03, 0x30, 0x9a, 0x3c, 0x8a, 0x7c, 0x28, 0xbe,
  0xe0, 0x73, 0xa8, 0x3e, 0xce, 0xcc, 0x4d, 0xbe, 0x1c, 0x32, 0xe4, 0xbd,
  0xd3, 0xeb, 0x90, 0xbd, 0xfc, 0x9a, 0xf9, 0xbd, 0xdd, 0x49, 0xda, 0xbd,
  0x45, 0x3a, 0x66, 0xbe, 0x23, 0x44, 0x82, 0x3c, 0x01, 0x28, 0x4c, 0xbe,
  0x1c, 0x68, 0xd9, 0x3d, 0x50, 0x12, 0x99, 0xbd, 0x7f, 0xe9, 0x71, 0x3e,
  0x88, 0x9f, 0x2b, 0xbe, 0xe3, 0x01, 0xb8, 0xbb, 0x52, 0xc6, 0x19, 0xbe,
  0x7d, 0xda, 0x84, 0xbe, 0x1c, 0x4a, 0x91, 0x3d, 0x41, 0xe0, 0x40, 0x3d,
  0x6e, 0x15, 0x0a, 0x3e, 0xcb, 0x16, 0x64, 0x3e, 0x36, 0x63, 0xb2, 0xbe,
  0xec, 0xea, 0x82, 0xbe, 0xe0, 0x80, 0x8c, 0xbe, 0x90, 0x52, 0x7c, 0x3d,
  0x21, 0x03, 0xa2, 0x3e, 0xe5, 0xb8, 0x69, 0xbe, 0x29, 0x3e, 0xae, 0x3d,
  0x48, 0x92, 0x14, 0x3e, 0xf2, 0xe0, 0x79, 0x3e, 0xbd, 0xef, 0x6f, 0xbe,
  0x02, 0x72, 0x08, 0xbd, 0x66, 0x71, 0x3f, 0x3e, 0xf3, 0x96, 0x9c, 0xbe,
  0xaa, 0x70, 0x8e, 0xbe, 0x9d, 0x33, 0x09, 0x3c, 0xa3, 0xcb, 0x3f, 0x3d,
  0x14, 0x2e, 0x38, 0xbe, 0xa1, 0x9e, 0x8a, 0x3e, 0x98, 0x10, 0xe5, 0x3e,
  0xe0, 0xf2, 0xb3, 0x3e, 0x91, 0xcd, 0xa4, 0xbe, 0xca, 0xd6, 0x6b, 0xbe,
  0x08, 0xc3, 0x40, 0xbd, 0xdd, 0x27, 0x9e, 0x3e, 0xb3, 0xfe, 0x83, 0xbe,
  0x3e, 0x2e, 0x1f, 0x3e, 0x60, 0x7f, 0xd9, 0xbe, 0x66, 0x8c, 0x58, 0xbe,
  0x55, 0x43, 0xfd, 0xbd, 0x0e, 0xd9, 0xa4, 0x3d, 0xff, 0xcd, 0x8e, 0xbe,
  0xcb, 0x0e, 0x3b, 0x3e, 0x7f, 0x9d, 0x83, 0xbe, 0x1c, 0x25, 0x85, 0x3c,
  0x27, 0x00, 0x68, 0xbe, 0x08, 0x3c, 0x87, 0xbd, 0x50, 0xc0, 0x05, 0xbe,
  0xb4, 0xfe, 0xb4, 0xbe, 0x3c, 0x27, 0x8e, 0x3e, 0x12, 0xda, 0x7e, 0x3e,
  0x47, 0xec, 0x9d, 0x3e, 0xc4, 0x1d, 0xc9, 0xbd, 0xa7, 0x1e, 0xc0, 0x3e,
  0x60, 0xad, 0xc5, 0xbd, 0xf1, 0xbf, 0xb7, 0x3e, 0x05, 0xbf, 0x70, 0x3c,
  0x06, 0xd5, 0x27, 0x3d, 0x67, 0xe2, 0xae, 0x3e, 0x8f, 0xf7, 0x98, 0x3e,
  0xf4, 0xcc, 0xc1, 0xbd, 0x1e, 0x5b, 0x27, 0x3f, 0xbe, 0x1e, 0x44, 0x3d,
  0x3b, 0xf6, 0x99, 0xbe, 0x10, 0x99, 0x0f, 0x3d, 0x83, 0x99, 0x0a, 0xbe,
  0xee, 0x1c, 0x91, 0xbe, 0x75, 0xe5, 0xc0, 0xbc, 0x5c, 0x7b, 0xe7, 0xbd,
  0xd5, 0x42, 0x23, 0xbf, 0xe6, 0x00, 0x53, 0x3e, 0xc8, 0x61, 0x9e, 0x3e,
  0x2f, 0xd6, 0xba, 0x3e, 0x87, 0x9e, 0x96, 0xbc, 0x8c, 0x86, 0x64, 0x3d,
  0x52, 0xf8, 0x4d, 0xbe, 0x5d, 0xed, 0x17, 0x3e, 0xef, 0xc1, 0xa4, 0x3e,
  0xc0, 0xd4, 0x8d, 0xbe, 0x4a, 0x8c, 0x15, 0xbe, 0xef, 0x75, 0xcc, 0xbd,
  0x37, 0x36, 0x74, 0xbe, 0x44, 0x2d, 0xdd, 0xbd, 0xee, 0xfc, 0xfe, 0xbb,
  0x9d, 0x59, 0x82, 0x3e, 0x00, 0x00, 0x06, 0x00, 0x08, 0x00, 0x04, 0x00,
  0x06, 0x00, 0x00, 0x00, 0x04, 0x00, 0x00, 0x00, 0x40, 0x00, 0x00, 0x00,
  0x5a, 0xd6, 0x77, 0xbe, 0x7d, 0x94, 0x2a, 0xbf, 0xce, 0xbc, 0xdc, 0x3e,
  0x89, 0x2c, 0x58, 0x3f, 0x82, 0xb9, 0xbf, 0x3f, 0xf2, 0x61, 0x13, 0xbf,
  0x0d, 0xff, 0xe8, 0xbb, 0x90, 0x9b, 0x26, 0xbf, 0xf1, 0x86, 0x89, 0x3f,
  0xa0, 0x65, 0x81, 0x3e, 0x8c, 0x38, 0x0e, 0x3f, 0xde, 0x70, 0x85, 0x3e,
  0xe1, 0xd0, 0xc4, 0xbe, 0x60, 0xc9, 0xa3, 0xbe, 0x6d, 0xc3, 0xe2, 0x3e,
  0x21, 0xa3, 0xec, 0x3e, 0x98, 0xf8, 0xff, 0xff, 0x9c, 0xf8, 0xff, 0xff,
  0x0f, 0x00, 0x00, 0x00, 0x4d, 0x4c, 0x49, 0x52, 0x20, 0x43, 0x6f, 0x6e,
  0x76, 0x65, 0x72, 0x74, 0x65, 0x64, 0x2e, 0x00, 0x01, 0x00, 0x00, 0x00,
  0x14, 0x00, 0x00, 0x00, 0x00, 0x00, 0x0e, 0x00, 0x18, 0x00, 0x14, 0x00,
  0x10, 0x00, 0x0c, 0x00, 0x08, 0x00, 0x04, 0x00, 0x0e, 0x00, 0x00, 0x00,
  0x14, 0x00, 0x00, 0x00, 0x1c, 0x00, 0x00, 0x00, 0x4c, 0x01, 0x00, 0x00,
  0x50, 0x01, 0x00, 0x00, 0x54, 0x01, 0x00, 0x00, 0x04, 0x00, 0x00, 0x00,
  0x6d, 0x61, 0x69, 0x6e, 0x00, 0x00, 0x00, 0x00, 0x05, 0x00, 0x00, 0x00,
  0xf4, 0x00, 0x00, 0x00, 0xa0, 0x00, 0x00, 0x00, 0x68, 0x00, 0x00, 0x00,
  0x34, 0x00, 0x00, 0x00, 0x10, 0x00, 0x00, 0x00, 0x00, 0x00, 0x0a, 0x00,
  0x10, 0x00, 0x0c, 0x00, 0x08, 0x00, 0x04, 0x00, 0x0a, 0x00, 0x00, 0x00,
  0x0c, 0x00, 0x00, 0x00, 0x10, 0x00, 0x00, 0x00, 0x01, 0x00, 0x00, 0x00,
  0x01, 0x00, 0x00, 0x00, 0x0d, 0x00, 0x00, 0x00, 0x01, 0x00, 0x00, 0x00,
  0x0c, 0x00, 0x00, 0x00, 0x5a, 0xff, 0xff, 0xff, 0x10, 0x00, 0x00, 0x00,
  0x00, 0x00, 0x00, 0x08, 0x0c, 0x00, 0x00, 0x00, 0x10, 0x00, 0x00, 0x00,
  0x48, 0xf9, 0xff, 0xff, 0x01, 0x00, 0x00, 0x00, 0x0c, 0x00, 0x00, 0x00,
  0x03, 0x00, 0x00, 0x00, 0x0b, 0x00, 0x00, 0x00, 0x01, 0x00, 0x00, 0x00,
  0x03, 0x00, 0x00, 0x00, 0x8a, 0xff, 0xff, 0xff, 0x10, 0x00, 0x00, 0x00,
  0x00, 0x00, 0x00, 0x08, 0x10, 0x00, 0x00, 0x00, 0x14, 0x00, 0x00, 0x00,
  0x7a, 0xff, 0xff, 0xff, 0x00, 0x00, 0x00, 0x01, 0x01, 0x00, 0x00, 0x00,
  0x0b, 0x00, 0x00, 0x00, 0x03, 0x00, 0x00, 0x00, 0x0a, 0x00, 0x00, 0x00,
  0x02, 0x00, 0x00, 0x00, 0x04, 0x00, 0x00, 0x00, 0xbe, 0xff, 0xff, 0xff,
  0x1c, 0x00, 0x00, 0x00, 0x00, 0x00, 0x00, 0x08, 0x1c, 0x00, 0x00, 0x00,
  0x20, 0x00, 0x00, 0x00, 0x0c, 0x00, 0x08, 0x00, 0x07, 0x00, 0x00, 0x00,
  0x00, 0x00, 0x06, 0x00, 0x0c, 0x00, 0x00, 0x00, 0x00, 0x00, 0x01, 0x01,
  0x01, 0x00, 0x00, 0x00, 0x0a, 0x00, 0x00, 0x00, 0x03, 0x00, 0x00, 0x00,
  0x09, 0x00, 0x00, 0x00, 0x08, 0x00, 0x00, 0x00, 0x05, 0x00, 0x00, 0x00,
  0x00, 0x00, 0x0e, 0x00, 0x16, 0x00, 0x00, 0x00, 0x10, 0x00, 0x0c, 0x00,
  0x0b, 0x00, 0x04, 0x00, 0x0e, 0x00, 0x00, 0x00, 0x18, 0x00, 0x00, 0x00,
  0x00, 0x00, 0x00, 0x08, 0x18, 0x00, 0x00, 0x00, 0x1c, 0x00, 0x00, 0x00,
  0x00, 0x00, 0x06, 0x00, 0x08, 0x00, 0x07, 0x00, 0x06, 0x00, 0x00, 0x00,
  0x00, 0x00, 0x00, 0x01, 0x01, 0x00, 0x00, 0x00, 0x09, 0x00, 0x00, 0x00,
  0x03, 0x00, 0x00, 0x00, 0x00, 0x00, 0x00, 0x00, 0x07, 0x00, 0x00, 0x00,
  0x06, 0x00, 0x00, 0x00, 0x01, 0x00, 0x00, 0x00, 0x0d, 0x00, 0x00, 0x00,
  0x01, 0x00, 0x00, 0x00, 0x00, 0x00, 0x00, 0x00, 0x0e, 0x00, 0x00, 0x00,
  0xa0, 0x05, 0x00, 0x00, 0x3c, 0x05, 0x00, 0x00, 0xd8, 0x04, 0x00, 0x00,
  0x80, 0x04, 0x00, 0x00, 0x28, 0x04, 0x00, 0x00, 0xd0, 0x03, 0x00, 0x00,
  0x78, 0x03, 0x00, 0x00, 0x2c, 0x03, 0x00, 0x00, 0xb0, 0x02, 0x00, 0x00,
  0x04, 0x02, 0x00, 0x00, 0x70, 0x01, 0x00, 0x00, 0xdc, 0x00, 0x00, 0x00,
  0x60, 0x00, 0x00, 0x00, 0x04, 0x00, 0x00, 0x00, 0xae, 0xfa, 0xff, 0xff,
  0x00, 0x00, 0x00, 0x01, 0x14, 0x00, 0x00, 0x00, 0x1c, 0x00, 0x00, 0x00,
  0x1c, 0x00, 0x00, 0x00, 0x0e, 0x00, 0x00, 0x00, 0x34, 0x00, 0x00, 0x00,
  0x02, 0x00, 0x00, 0x00, 0xff, 0xff, 0xff, 0xff, 0x01, 0x00, 0x00, 0x00,
  0x98, 0xfa, 0xff, 0xff, 0x19, 0x00, 0x00, 0x00, 0x53, 0x74, 0x61, 0x74,
  0x65, 0x66, 0x75, 0x6c, 0x50, 0x61, 0x72, 0x74, 0x69, 0x74, 0x69, 0x6f,
  0x6e, 0x65, 0x64, 0x43, 0x61, 0x6c, 0x6c, 0x3a, 0x30, 0x00, 0x00, 0x00,
  0x02, 0x00, 0x00, 0x00, 0x01, 0x00, 0x00, 0x00, 0x01, 0x00, 0x00, 0x00,
  0x06, 0xfb, 0xff, 0xff, 0x00, 0x00, 0x00, 0x01, 0x14, 0x00, 0x00, 0x00,
  0x1c, 0x00, 0x00, 0x00, 0x1c, 0x00, 0x00, 0x00, 0x0d, 0x00, 0x00, 0x00,
  0x54, 0x00, 0x00, 0x00, 0x02, 0x00, 0x00, 0x00, 0xff, 0xff, 0xff, 0xff,
  0x01, 0x00, 0x00, 0x00, 0xf0, 0xfa, 0xff, 0xff, 0x38, 0x00, 0x00, 0x00,
  0x73, 0x65, 0x71, 0x75, 0x65, 0x6e, 0x74, 0x69, 0x61, 0x6c, 0x5f, 0x31,
  0x2f, 0x64, 0x65, 0x6e, 0x73, 0x65, 0x5f, 0x36, 0x2f, 0x4d, 0x61, 0x74,
  0x4d, 0x75, 0x6c, 0x3b, 0x73, 0x65, 0x71, 0x75, 0x65, 0x6e, 0x74, 0x69,
  0x61, 0x6c, 0x5f, 0x31, 0x2f, 0x64, 0x65, 0x6e, 0x73, 0x65, 0x5f, 0x36,
  0x2f, 0x42, 0x69, 0x61, 0x73, 0x41, 0x64, 0x64, 0x00, 0x00, 0x00, 0x00,
  0x02, 0x00, 0x00, 0x00, 0x01, 0x00, 0x00, 0x00, 0x01, 0x00, 0x00, 0x00,
  0x7e, 0xfb, 0xff, 0xff, 0x00, 0x00, 0x00, 0x01, 0x14, 0x00, 0x00, 0x00,
  0x1c, 0x00, 0x00, 0x00, 0x1c, 0x00, 0x00, 0x00, 0x0c, 0x00, 0x00, 0x00,
  0x6c, 0x00, 0x00, 0x00, 0x02, 0x00, 0x00, 0x00, 0xff, 0xff, 0xff, 0xff,
  0x10, 0x00, 0x00, 0x00, 0x68, 0xfb, 0xff, 0xff, 0x52, 0x00, 0x00, 0x00,
  0x73, 0x65, 0x71, 0x75, 0x65, 0x6e, 0x74, 0x69, 0x61, 0x6c, 0x5f, 0x31,
  0x2f, 0x64, 0x65, 0x6e, 0x73, 0x65, 0x5f, 0x35, 0x2f, 0x4d, 0x61, 0x74,
  0x4d, 0x75, 0x6c, 0x3b, 0x73, 0x65, 0x71, 0x75, 0x65, 0x6e, 0x74, 0x69,
  0x61, 0x6c, 0x5f, 0x31, 0x2f, 0x64, 0x65, 0x6e, 0x73, 0x65, 0x5f, 0x35,
  0x2f, 0x52, 0x65, 0x6c, 0x75, 0x3b, 0x73, 0x65, 0x71, 0x75, 0x65, 0x6e,
  0x74, 0x69, 0x61, 0x6c, 0x5f, 0x31, 0x2f, 0x64, 0x65, 0x6e, 0x73, 0x65,
  0x5f, 0x35, 0x2f, 0x42, 0x69, 0x61, 0x73, 0x41, 0x64, 0x64, 0x00, 0x00,
  0x02, 0x00, 0x00, 0x00, 0x01, 0x00, 0x00, 0x00, 0x10, 0x00, 0x00, 0x00,
  0x0e, 0xfc, 0xff, 0xff, 0x00, 0x00, 0x00, 0x01, 0x14, 0x00, 0x00, 0x00,
  0x1c, 0x00, 0x00, 0x00, 0x1c, 0x00, 0x00, 0x00, 0x0b, 0x00, 0x00, 0x00,
  0x6c, 0x00, 0x00, 0x00, 0x02, 0x00, 0x00, 0x00, 0xff, 0xff, 0xff, 0xff,
  0x20, 0x00, 0x00, 0x00, 0xf8, 0xfb, 0xff, 0xff, 0x52, 0x00, 0x00, 0x00,
  0x73, 0x65, 0x71, 0x75, 0x65, 0x6e, 0x74, 0x69, 0x61, 0x6c, 0x5f, 0x31,
  0x2f, 0x64, 0x65, 0x6e, 0x73, 0x65, 0x5f, 0x34, 0x2f, 0x4d, 0x61, 0x74,
  0x4d, 0x75, 0x6c, 0x3b, 0x73, 0x65, 0x71, 0x75, 0x65, 0x6e, 0x74, 0x69,
  0x61, 0x6c, 0x5f, 0x31, 0x2f, 0x64, 0x65, 0x6e, 0x73, 0x65, 0x5f, 0x34,
  0x2f, 0x52, 0x65, 0x6c, 0x75, 0x3b, 0x73, 0x65, 0x71, 0x75, 0x65, 0x6e,
  0x74, 0x69, 0x61, 0x6c, 0x5f, 0x31, 0x2f, 0x64, 0x65, 0x6e, 0x73, 0x65,
  0x5f, 0x34, 0x2f, 0x42, 0x69, 0x61, 0x73, 0x41, 0x64, 0x64, 0x00, 0x00,
  0x02, 0x00, 0x00, 0x00, 0x01, 0x00, 0x00, 0x00, 0x20, 0x00, 0x00, 0x00,
  0x9e, 0xfc, 0xff, 0xff, 0x00, 0x00, 0x00, 0x01, 0x14, 0x00, 0x00, 0x00,
  0x1c, 0x00, 0x00, 0x00, 0x1c, 0x00, 0x00, 0x00, 0x0a, 0x00, 0x00, 0x00,
  0x6c, 0x00, 0x00, 0x00, 0x02, 0x00, 0x00, 0x00, 0xff, 0xff, 0xff, 0xff,
  0x40, 0x00, 0x00, 0x00, 0x88, 0xfc, 0xff, 0xff, 0x52, 0x00, 0x00, 0x00,
  0x73, 0x65, 0x71, 0x75, 0x65, 0x6e, 0x74, 0x69, 0x61, 0x6c, 0x5f, 0x31,
  0x2f, 0x64, 0x65, 0x6e, 0x73, 0x65, 0x5f, 0x33, 0x2f, 0x4d, 0x61, 0x74,
  0x4d, 0x75, 0x6c, 0x3b, 0x73, 0x65, 0x71, 0x75, 0x65, 0x6e, 0x74, 0x69,
  0x61, 0x6c, 0x5f, 0x31, 0x2f, 0x64, 0x65, 0x6e, 0x73, 0x65, 0x5f, 0x33,
  0x2f, 0x52, 0x65, 0x6c, 0x75, 0x3b, 0x73, 0x65, 0x71, 0x75, 0x65, 0x6e,
  0x74, 0x69, 0x61, 0x6c, 0x5f, 0x31, 0x2f, 0x64, 0x65, 0x6e, 0x73, 0x65,
  0x5f, 0x33, 0x2f, 0x42, 0x69, 0x61, 0x73, 0x41, 0x64, 0x64, 0x00, 0x00,
  0x02, 0x00, 0x00, 0x00, 0x01, 0x00, 0x00, 0x00, 0x40, 0x00, 0x00, 0x00,
  0x00, 0x00, 0x16, 0x00, 0x1c, 0x00, 0x18, 0x00, 0x17, 0x00, 0x10, 0x00,
  0x0c, 0x00, 0x08, 0x00, 0x00, 0x00, 0x00, 0x00, 0x00, 0x00, 0x07, 0x00,
  0x16, 0x00, 0x00, 0x00, 0x00, 0x00, 0x00, 0x01, 0x20, 0x00, 0x00, 0x00,
  0x40, 0x00, 0x00, 0x00, 0x09, 0x00, 0x00, 0x00, 0x00, 0x00, 0x00, 0x09,
  0x54, 0x00, 0x00, 0x00, 0x0c, 0x00, 0x0c, 0x00, 0x00, 0x00, 0x00, 0x00,
  0x08, 0x00, 0x04, 0x00, 0x0c, 0x00, 0x00, 0x00, 0x08, 0x00, 0x00, 0x00,
  0x14, 0x00, 0x00, 0x00, 0x01, 0x00, 0x00, 0x00, 0x00, 0x00, 0x00, 0x00,
  0x00, 0x00, 0x00, 0x00, 0x00, 0x00, 0x00, 0x00, 0x01, 0x00, 0x00, 0x00,
  0x6e, 0xcd, 0x00, 0x3c, 0x1b, 0x00, 0x00, 0x00, 0x73, 0x65, 0x71, 0x75,
  0x65, 0x6e, 0x74, 0x69, 0x61, 0x6c, 0x5f, 0x31, 0x2f, 0x64, 0x65, 0x6e,
  0x73, 0x65, 0x5f, 0x34, 0x2f, 0x4d, 0x61, 0x74, 0x4d, 0x75, 0x6c, 0x00,
  0x02, 0x00, 0x00, 0x00, 0x20, 0x00, 0x00, 0x00, 0x40, 0x00, 0x00, 0x00,
  0x1e, 0xfe, 0xff, 0xff, 0x00, 0x00, 0x00, 0x01, 0x10, 0x00, 0x00, 0x00,
  0x10, 0x00, 0x00, 0x00, 0x08, 0x00, 0x00, 0x00, 0x28, 0x00, 0x00, 0x00,
  0x98, 0xfd, 0xff, 0xff, 0x1b, 0x00, 0x00, 0x00, 0x73, 0x65, 0x71, 0x75,
  0x65, 0x6e, 0x74, 0x69, 0x61, 0x6c, 0x5f, 0x31, 0x2f, 0x64, 0x65, 0x6e,
  0x73, 0x65, 0x5f, 0x33, 0x2f, 0x4d, 0x61, 0x74, 0x4d, 0x75, 0x6c, 0x00,
  0x02, 0x00, 0x00, 0x00, 0x40, 0x00, 0x00, 0x00, 0x03, 0x00, 0x00, 0x00,
  0x66, 0xfe, 0xff, 0xff, 0x00, 0x00, 0x00, 0x01, 0x10, 0x00, 0x00, 0x00,
  0x10, 0x00, 0x00, 0x00, 0x07, 0x00, 0x00, 0x00, 0x38, 0x00, 0x00, 0x00,
  0xe0, 0xfd, 0xff, 0xff, 0x2b, 0x00, 0x00, 0x00, 0x73, 0x65, 0x71, 0x75,
  0x65, 0x6e, 0x74, 0x69, 0x61, 0x6c, 0x5f, 0x31, 0x2f, 0x64, 0x65, 0x6e,
  0x73, 0x65, 0x5f, 0x33, 0x2f, 0x42, 0x69, 0x61, 0x73, 0x41, 0x64, 0x64,
  0x2f, 0x52, 0x65, 0x61, 0x64, 0x56, 0x61, 0x72, 0x69, 0x61, 0x62, 0x6c,
  0x65, 0x4f, 0x70, 0x00, 0x01, 0x00, 0x00, 0x00, 0x40, 0x00, 0x00, 0x00,
  0xba, 0xfe, 0xff, 0xff, 0x00, 0x00, 0x00, 0x01, 0x10, 0x00, 0x00, 0x00,
  0x10, 0x00, 0x00, 0x00, 0x06, 0x00, 0x00, 0x00, 0x38, 0x00, 0x00, 0x00,
  0x34, 0xfe, 0xff, 0xff, 0x2b, 0x00, 0x00, 0x00, 0x73, 0x65, 0x71, 0x75,
  0x65, 0x6e, 0x74, 0x69, 0x61, 0x6c, 0x5f, 0x31, 0x2f, 0x64, 0x65, 0x6e,
  0x73, 0x65, 0x5f, 0x34, 0x2f, 0x42, 0x69, 0x61, 0x73, 0x41, 0x64, 0x64,
  0x2f, 0x52, 0x65, 0x61, 0x64, 0x56, 0x61, 0x72, 0x69, 0x61, 0x62, 0x6c,
  0x65, 0x4f, 0x70, 0x00, 0x01, 0x00, 0x00, 0x00, 0x20, 0x00, 0x00, 0x00,
  0x0e, 0xff, 0xff, 0xff, 0x00, 0x00, 0x00, 0x01, 0x10, 0x00, 0x00, 0x00,
  0x10, 0x00, 0x00, 0x00, 0x05, 0x00, 0x00, 0x00, 0x38, 0x00, 0x00, 0x00,
  0x88, 0xfe, 0xff, 0xff, 0x2b, 0x00, 0x00, 0x00, 0x73, 0x65, 0x71, 0x75,
  0x65, 0x6e, 0x74, 0x69, 0x61, 0x6c, 0x5f, 0x31, 0x2f, 0x64, 0x65, 0x6e,
  0x73, 0x65, 0x5f, 0x35, 0x2f, 0x42, 0x69, 0x61, 0x73, 0x41, 0x64, 0x64,
  0x2f, 0x52, 0x65, 0x61, 0x64, 0x56, 0x61, 0x72, 0x69, 0x61, 0x62, 0x6c,
  0x65, 0x4f, 0x70, 0x00, 0x01, 0x00, 0x00, 0x00, 0x10, 0x00, 0x00, 0x00,
  0x62, 0xff, 0xff, 0xff, 0x00, 0x00, 0x00, 0x01, 0x10, 0x00, 0x00, 0x00,
  0x10, 0x00, 0x00, 0x00, 0x04, 0x00, 0x00, 0x00, 0x38, 0x00, 0x00, 0x00,
  0xdc, 0xfe, 0xff, 0xff, 0x2b, 0x00, 0x00, 0x00, 0x73, 0x65, 0x71, 0x75,
  0x65, 0x6e, 0x74, 0x69, 0x61, 0x6c, 0x5f, 0x31, 0x2f, 0x64, 0x65, 0x6e,
  0x73, 0x65, 0x5f, 0x36, 0x2f, 0x42, 0x69, 0x61, 0x73, 0x41, 0x64, 0x64,
  0x2f, 0x52, 0x65, 0x61, 0x64, 0x56, 0x61, 0x72, 0x69, 0x61, 0x62, 0x6c,
  0x65, 0x4f, 0x70, 0x00, 0x01, 0x00, 0x00, 0x00, 0x01, 0x00, 0x00, 0x00,
  0xb6, 0xff, 0xff, 0xff, 0x00, 0x00, 0x00, 0x01, 0x10, 0x00, 0x00, 0x00,
  0x10, 0x00, 0x00, 0x00, 0x03, 0x00, 0x00, 0x00, 0x28, 0x00, 0x00, 0x00,
  0x30, 0xff, 0xff, 0xff, 0x1b, 0x00, 0x00, 0x00, 0x73, 0x65, 0x71, 0x75,
  0x65, 0x6e, 0x74, 0x69, 0x61, 0x6c, 0x5f, 0x31, 0x2f, 0x64, 0x65, 0x6e,
  0x73, 0x65, 0x5f, 0x35, 0x2f, 0x4d, 0x61, 0x74, 0x4d, 0x75, 0x6c, 0x00,
  0x02, 0x00, 0x00, 0x00, 0x10, 0x00, 0x00, 0x00, 0x20, 0x00, 0x00, 0x00,
  0x00, 0x00, 0x16, 0x00, 0x18, 0x00, 0x14, 0x00, 0x00, 0x00, 0x10, 0x00,
  0x0c, 0x00, 0x08, 0x00, 0x00, 0x00, 0x00, 0x00, 0x00, 0x00, 0x07, 0x00,
  0x16, 0x00, 0x00, 0x00, 0x00, 0x00, 0x00, 0x01, 0x10, 0x00, 0x00, 0x00,
  0x10, 0x00, 0x00, 0x00, 0x02, 0x00, 0x00, 0x00, 0x28, 0x00, 0x00, 0x00,
  0x90, 0xff, 0xff, 0xff, 0x1b, 0x00, 0x00, 0x00, 0x73, 0x65, 0x71, 0x75,
  0x65, 0x6e, 0x74, 0x69, 0x61, 0x6c, 0x5f, 0x31, 0x2f, 0x64, 0x65, 0x6e,
  0x73, 0x65, 0x5f, 0x36, 0x2f, 0x4d, 0x61, 0x74, 0x4d, 0x75, 0x6c, 0x00,
  0x02, 0x00, 0x00, 0x00, 0x01, 0x00, 0x00, 0x00, 0x10, 0x00, 0x00, 0x00,
  0x00, 0x00, 0x16, 0x00, 0x1c, 0x00, 0x18, 0x00, 0x00, 0x00, 0x14, 0x00,
  0x10, 0x00, 0x0c, 0x00, 0x00, 0x00, 0x00, 0x00, 0x08, 0x00, 0x07, 0x00,
  0x16, 0x00, 0x00, 0x00, 0x00, 0x00, 0x00, 0x01, 0x14, 0x00, 0x00, 0x00,
  0x20, 0x00, 0x00, 0x00, 0x20, 0x00, 0x00, 0x00, 0x01, 0x00, 0x00, 0x00,
  0x3c, 0x00, 0x00, 0x00, 0x02, 0x00, 0x00, 0x00, 0xff, 0xff, 0xff, 0xff,
  0x03, 0x00, 0x00, 0x00, 0x04, 0x00, 0x04, 0x00, 0x04, 0x00, 0x00, 0x00,
  0x1f, 0x00, 0x00, 0x00, 0x73, 0x65, 0x72, 0x76, 0x69, 0x6e, 0x67, 0x5f,
  0x64, 0x65, 0x66, 0x61, 0x75, 0x6c, 0x74, 0x5f, 0x64, 0x65, 0x6e, 0x73,
  0x65, 0x5f, 0x33, 0x5f, 0x69, 0x6e, 0x70, 0x75, 0x74, 0x3a, 0x30, 0x00,
  0x02, 0x00, 0x00, 0x00, 0x01, 0x00, 0x00, 0x00, 0x03, 0x00, 0x00, 0x00,
  0x02, 0x00, 0x00, 0x00, 0x2c, 0x00, 0x00, 0x00, 0x10, 0x00, 0x00, 0x00,
  0x0c, 0x00, 0x0c, 0x00, 0x0b, 0x00, 0x00, 0x00, 0x00, 0x00, 0x04, 0x00,
  0x0c, 0x00, 0x00, 0x00, 0x0e, 0x00, 0x00, 0x00, 0x00, 0x00, 0x00, 0x0e,
  0x0c, 0x00, 0x10, 0x00, 0x0f, 0x00, 0x00, 0x00, 0x08, 0x00, 0x04, 0x00,
  0x0c, 0x00, 0x00, 0x00, 0x09, 0x00, 0x00, 0x00, 0x09, 0x00, 0x00, 0x00,
  0x00, 0x00, 0x00, 0x09
};

#endif //GAS_MODEL_H